{
  "version": "1.0",
  "truncation": null,
  "padding": null,
  "added_tokens": [
    {
      "id": 0,
      "content": "<pad>",
      "single_word": false,
      "lstrip": false,
      "rstrip": false,
      "normalized": false,
      "special": true
    },
    {
      "id": 1,
      "content": "<s>",
      "single_word": false,
      "lstrip": false,
      "rstrip": false,
      "normalized": false,
      "special": true
    },
    {
      "id": 2,
      "content": "</s>",
      "single_word": false,
      "lstrip": false,
      "rstrip": false,
      "normalized": false,
      "special": true
    },
    {
      "id": 3,
      "content": "<unk>",
      "single_word": false,
      "lstrip": false,
      "rstrip": false,
      "normalized": false,
      "special": true
    },
    {
      "id": 4,
      "content": "<|system|>",
      "single_word": false,
      "lstrip": false,
      "rstrip": false,
      "normalized": false,
      "special": true
    },
    {
      "id": 5,
      "content": "<|user|>",
      "single_word": false,
      "lstrip": false,
      "rstrip": false,
      "normalized": false,
      "special": true
    },
    {
      "id": 6,
      "content": "<|assistant|>",
      "single_word": false,
      "lstrip": false,
      "rstrip": false,
      "normalized": false,
      "special": true
    },
    {
      "id": 7,
      "content": "<|tool_call|>",
      "single_word": false,
      "lstrip": false,
      "rstrip": false,
      "normalized": false,
      "special": true
    },
    {
      "id": 8,
      "content": "<|tool_resp|>",
      "single_word": false,
      "lstrip": false,
      "rstrip": false,
      "normalized": false,
      "special": true
    }
  ],
  "normalizer": {
    "type": "Sequence",
    "normalizers": [
      {
        "type": "NFKC"
      }
    ]
  },
  "pre_tokenizer": {
    "type": "ByteLevel",
    "add_prefix_space": false,
    "trim_offsets": true,
    "use_regex": true
  },
  "post_processor": null,
  "decoder": {
    "type": "ByteLevel",
    "add_prefix_space": true,
    "trim_offsets": true,
    "use_regex": true
  },
  "model": {
    "type": "BPE",
    "dropout": null,
    "unk_token": "<unk>",
    "continuing_subword_prefix": null,
    "end_of_word_suffix": null,
    "fuse_unk": false,
    "byte_fallback": false,
    "ignore_merges": false,
    "vocab": {
      "<pad>": 0,
      "<s>": 1,
      "</s>": 2,
      "<unk>": 3,
      "<|system|>": 4,
      "<|user|>": 5,
      "<|assistant|>": 6,
      "<|tool_call|>": 7,
      "<|tool_resp|>": 8,
      "!": 9,
      "\"": 10,
      "#": 11,
      "$": 12,
      "%": 13,
      "&": 14,
      "'": 15,
      "(": 16,
      ")": 17,
      "*": 18,
      "+": 19,
      ",": 20,
      "-": 21,
      ".": 22,
      "/": 23,
      "0": 24,
      "1": 25,
      "2": 26,
      "3": 27,
      "4": 28,
      "5": 29,
      "6": 30,
      "7": 31,
      "8": 32,
      "9": 33,
      ":": 34,
      ";": 35,
      "<": 36,
      "=": 37,
      ">": 38,
      "?": 39,
      "@": 40,
      "A": 41,
      "B": 42,
      "C": 43,
      "D": 44,
      "E": 45,
      "F": 46,
      "G": 47,
      "H": 48,
      "I": 49,
      "J": 50,
      "K": 51,
      "L": 52,
      "M": 53,
      "N": 54,
      "O": 55,
      "P": 56,
      "Q": 57,
      "R": 58,
      "S": 59,
      "T": 60,
      "U": 61,
      "V": 62,
      "W": 63,
      "X": 64,
      "Y": 65,
      "Z": 66,
      "[": 67,
      "\\": 68,
      "]": 69,
      "^": 70,
      "_": 71,
      "`": 72,
      "a": 73,
      "b": 74,
      "c": 75,
      "d": 76,
      "e": 77,
      "f": 78,
      "g": 79,
      "h": 80,
      "i": 81,
      "j": 82,
      "k": 83,
      "l": 84,
      "m": 85,
      "n": 86,
      "o": 87,
      "p": 88,
      "q": 89,
      "r": 90,
      "s": 91,
      "t": 92,
      "u": 93,
      "v": 94,
      "w": 95,
      "x": 96,
      "y": 97,
      "z": 98,
      "{": 99,
      "|": 100,
      "}": 101,
      "~": 102,
      "¡": 103,
      "¢": 104,
      "£": 105,
      "¤": 106,
      "¥": 107,
      "¦": 108,
      "§": 109,
      "¨": 110,
      "©": 111,
      "ª": 112,
      "«": 113,
      "¬": 114,
      "®": 115,
      "¯": 116,
      "°": 117,
      "±": 118,
      "²": 119,
      "³": 120,
      "´": 121,
      "µ": 122,
      "¶": 123,
      "·": 124,
      "¸": 125,
      "¹": 126,
      "º": 127,
      "»": 128,
      "¼": 129,
      "½": 130,
      "¾": 131,
      "¿": 132,
      "Â": 133,
      "Ã": 134,
      "Ä": 135,
      "Å": 136,
      "Æ": 137,
      "Ç": 138,
      "È": 139,
      "É": 140,
      "Ê": 141,
      "Ë": 142,
      "Ì": 143,
      "Í": 144,
      "Î": 145,
      "Ï": 146,
      "Ð": 147,
      "Ñ": 148,
      "Ò": 149,
      "Ó": 150,
      "Ô": 151,
      "Õ": 152,
      "Ö": 153,
      "×": 154,
      "Ø": 155,
      "Ù": 156,
      "Ú": 157,
      "Û": 158,
      "Ü": 159,
      "Ý": 160,
      "ß": 161,
      "à": 162,
      "á": 163,
      "â": 164,
      "ã": 165,
      "ä": 166,
      "å": 167,
      "æ": 168,
      "ç": 169,
      "è": 170,
      "é": 171,
      "ê": 172,
      "ë": 173,
      "ì": 174,
      "í": 175,
      "î": 176,
      "ï": 177,
      "ð": 178,
      "ñ": 179,
      "ó": 180,
      "ĉ": 181,
      "Ċ": 182,
      "Ġ": 183,
      "ġ": 184,
      "Ģ": 185,
      "ģ": 186,
      "Ĥ": 187,
      "ĥ": 188,
      "Ħ": 189,
      "ħ": 190,
      "Ĩ": 191,
      "ĩ": 192,
      "Ī": 193,
      "ī": 194,
      "Ĭ": 195,
      "ĭ": 196,
      "Į": 197,
      "į": 198,
      "İ": 199,
      "ı": 200,
      "Ĳ": 201,
      "ĳ": 202,
      "Ĵ": 203,
      "ĵ": 204,
      "Ķ": 205,
      "ķ": 206,
      "ĸ": 207,
      "Ĺ": 208,
      "ĺ": 209,
      "Ļ": 210,
      "ļ": 211,
      "Ľ": 212,
      "ľ": 213,
      "Ŀ": 214,
      "ŀ": 215,
      "Ł": 216,
      "ł": 217,
      "Ń": 218,
      "ãĢ": 219,
      "ä¸": 220,
      "çļ": 221,
      "çļĦ": 222,
      "äº": 223,
      "æľ": 224,
      "ãĢĤ": 225,
      "åħ": 226,
      "åı": 227,
      "åľ": 228,
      "å¹": 229,
      "å¤": 230,
      "ä»": 231,
      "æĸ": 232,
      "å¹´": 233,
      "å®": 234,
      "åĪ": 235,
      "åĲ": 236,
      "åį": 237,
      "çĶ": 238,
      "ä½": 239,
      "å°": 240,
      "ãĢģ": 241,
      "æĺ": 242,
      "åŃ": 243,
      "æĹ": 244,
      "åĽ": 245,
      "å¾": 246,
      "æĪ": 247,
      "ä¹": 248,
      "ä¸Ń": 249,
      "åľ¨": 250,
      "ä¸Ģ": 251,
      "å¸": 252,
      "éĢ": 253,
      "äºº": 254,
      "åĬ": 255,
      "æŃ": 256,
      "è¡": 257,
      "åĮ": 258,
      "å·": 259,
      "éģ": 260,
      "å¤§": 261,
      "çī": 262,
      "æĺ¯": 263,
      "è¿": 264,
      "éĩ": 265,
      "èĢ": 266,
      "æĶ": 267,
      "åº": 268,
      "å±": 269,
      "20": 270,
      "æľī": 271,
      "19": 272,
      "æĿ": 273,
      "éĥ": 274,
      "åĴ": 275,
      "æķ": 276,
      "æĹ¥": 277,
      "æ°": 278,
      "æľĪ": 279,
      "åĴĮ": 280,
      "éĻ": 281,
      "æī": 282,
      "âĢ": 283,
      "èĩ": 284,
      "çĤ": 285,
      "å¼": 286,
      "ä¼": 287,
      "çĽ": 288,
      "éĽ": 289,
      "åĽ½": 290,
      "åĩ": 291,
      "æ³": 292,
      "ç»": 293,
      "åĨ": 294,
      "ç«": 295,
      "åľĭ": 296,
      "å¥": 297,
      "å¯": 298,
      "ç§": 299,
      "çĤº": 300,
      "èĪ": 301,
      "è®": 302,
      "ä»¥": 303,
      "æĻ": 304,
      "æ²": 305,
      "å½": 306,
      "ç¾": 307,
      "åī": 308,
      "æµ": 309,
      "äºĨ": 310,
      "æĪĲ": 311,
      "æĭ": 312,
      "ä¸º": 313,
      "åľ°": 314,
      "æł": 315,
      "åŁ": 316,
      "è¦": 317,
      "åİ": 318,
      "æĽ": 319,
      "è¯": 320,
      "éĥ¨": 321,
      "çĲ": 322,
      "åĵ": 323,
      "çİ": 324,
      "éĿ": 325,
      "ä¸Ĭ": 326,
      "å»": 327,
      "ä¸į": 328,
      "è¡Į": 329,
      "ãĢĭ": 330,
      "ãĢĬ": 331,
      "åĩº": 332,
      "ç´": 333,
      "çķ": 334,
      "è¨": 335,
      "ä¾": 336,
      "æ´": 337,
      "æİ": 338,
      "åĭ": 339,
      "ç¬": 340,
      "åĢ": 341,
      "ä¹ĭ": 342,
      "çĻ": 343,
      "ä¸»": 344,
      "ä½ľ": 345,
      "æ¸": 346,
      "åĳ": 347,
      "çĶŁ": 348,
      "èµ": 349,
      "è§": 350,
      "ä¿": 351,
      "çº": 352,
      "æĢ": 353,
      "æĸ¯": 354,
      "é¦": 355,
      "åħ¬": 356,
      "é«": 357,
      "å®¶": 358,
      "æ¯": 359,
      "ç¬¬": 360,
      "æĸ¼": 361,
      "éķ": 362,
      "æĸĩ": 363,
      "ä»ĸ": 364,
      "éĸ": 365,
      "éĺ": 366,
      "èģ": 367,
      "çµ": 368,
      "åħ¶": 369,
      "çĶ¨": 370,
      "ç¨": 371,
      "éļ": 372,
      "è¥": 373,
      "æŀ": 374,
      "åĪĨ": 375,
      "æ°ĳ": 376,
      "è»": 377,
      "åŃ¦": 378,
      "æ±": 379,
      "åĲį": 380,
      "çŃ": 381,
      "ĠĊ": 382,
      "å§": 383,
      "å¿": 384,
      "æĬ": 385,
      "è¥¿": 386,
      "èĥ": 387,
      "æ³ķ": 388,
      "æľ¬": 389,
      "Â·": 390,
      "æĶ¿": 391,
      "åŃĲ": 392,
      "çĪ": 393,
      "æ¬": 394,
      "è¢": 395,
      "åŃ¸": 396,
      "éĹ": 397,
      "æĸ¹": 398,
      "èª": 399,
      "è·": 400,
      "åĪ°": 401,
      "äºİ": 402,
      "åįĹ": 403,
      "èĢĮ": 404,
      "è³": 405,
      "æĻĤ": 406,
      "æľĥ": 407,
      "åıĬ": 408,
      "å¸Ĥ": 409,
      "è¾": 410,
      "ãĢĮ": 411,
      "ãĢį": 412,
      "çľ": 413,
      "å¾Į": 414,
      "è¢«": 415,
      "ç¶": 416,
      "ç©": 417,
      "èĩª": 418,
      "åĲĮ": 419,
      "çĶ±": 420,
      "å£": 421,
      "æĮ": 422,
      "åĮĹ": 423,
      "èĭ": 424,
      "ä¸ĭ": 425,
      "çī¹": 426,
      "å¤ļ": 427,
      "æ¼": 428,
      "æĸ°": 429,
      "æ¨": 430,
      "201": 431,
      "ç¾İ": 432,
      "200": 433,
      "åı¯": 434,
      "é»": 435,
      "ä½į": 436,
      "ç½": 437,
      "åł": 438,
      "ä¸ĸ": 439,
      "çī©": 440,
      "ä»£": 441,
      "é¡": 442,
      "é«ĺ": 443,
      "å¤ĸ": 444,
      "èī": 445,
      "æľĢ": 446,
      "ä¸ī": 447,
      "éł": 448,
      "è½": 449,
      "æµ·": 450,
      "èĪĩ": 451,
      "âĢľ": 452,
      "âĢĿ": 453,
      "åīį": 454,
      "éŁ": 455,
      "ç«ĭ": 456,
      "å°ı": 457,
      "çŃī": 458,
      "æīĢ": 459,
      "éģĵ": 460,
      "ç¥": 461,
      "ç¤": 462,
      "åĬł": 463,
      "åħĭ": 464,
      "å¾·": 465,
      "çĲĨ": 466,
      "ä»»": 467,
      "è©": 468,
      "äºĭ": 469,
      "è´": 470,
      "å»º": 471,
      "æķĻ": 472,
      "ä¹Ł": 473,
      "åĲİ": 474,
      "ä¼ļ": 475,
      "æĦ": 476,
      "éĤ": 477,
      "å±±": 478,
      "er": 479,
      "è¦ģ": 480,
      "ç·": 481,
      "çŁ": 482,
      "åĪ©": 483,
      "çģ": 484,
      "å¦": 485,
      "åĽł": 486,
      "èŃ": 487,
      "æı": 488,
      "äºĮ": 489,
      "ä¸ª": 490,
      "åĿ": 491,
      "è·¯": 492,
      "åĮĸ": 493,
      "æŃ¤": 494,
      "åı°": 495,
      "å¾Ĺ": 496,
      "å¤©": 497,
      "çĦ": 498,
      "çı": 499,
      "è£": 500,
      "è¡¨": 501,
      "é¢": 502,
      "ç±": 503,
      "æĹ¶": 504,
      "å·¥": 505,
      "å¹³": 506,
      "an": 507,
      "èĥ½": 508,
      "æĵ": 509,
      "æľŁ": 510,
      "èĩ³": 511,
      "éĩĮ": 512,
      "åĲĪ": 513,
      "å®ļ": 514,
      "åħ¨": 515,
      "è¶": 516,
      "ç«Ļ": 517,
      "èĢħ": 518,
      "èĲ": 519,
      "éĢļ": 520,
      "èĻ": 521,
      "åįģ": 522,
      "),": 523,
      "ä½¿": 524,
      "åº¦": 525,
      "è²": 526,
      "çĻ¼": 527,
      "åĮº": 528,
      "çİĭ": 529,
      "æĥ": 530,
      "åħ±": 531,
      "é£": 532,
      "åħ¥": 533,
      "ç§ĳ": 534,
      "åĢĭ": 535,
      "éĽ»": 536,
      "éĿ¢": 537,
      "æĭī": 538,
      "èĤ": 539,
      "éĻ¢": 540,
      "çį": 541,
      "æĢ§": 542,
      "10": 543,
      "å·ŀ": 544,
      "æ¥": 545,
      "æ¬¡": 546,
      "in": 547,
      "ç®": 548,
      "åįĢ": 549,
      "åģ": 550,
      "ç³": 551,
      "åĭķ": 552,
      "ä½Ĩ": 553,
      "å°Ķ": 554,
      "ç¸": 555,
      "æĺİ": 556,
      "çĽ¸": 557,
      "éĩį": 558,
      "åİŁ": 559,
      "åĵ¡": 560,
      "å¼ı": 561,
      "åĨĽ": 562,
      "on": 563,
      "ç¦": 564,
      "å®ī": 565,
      "åĬĽ": 566,
      "å£«": 567,
      "åıĳ": 568,
      "çĲĥ": 569,
      "æ¼Ķ": 570,
      "éĥ½": 571,
      "èĢĥ": 572,
      "è¼": 573,
      "æ²»": 574,
      "æº": 575,
      "èĳ": 576,
      "å½±": 577,
      "çł": 578,
      "éĩĳ": 579,
      "æŁ": 580,
      "æ©": 581,
      "æ®": 582,
      "åŁº": 583,
      "åĤ": 584,
      "æĺŁ": 585,
      "èı": 586,
      "é©": 587,
      "ä¾Ĩ": 588,
      "è»į": 589,
      "å¢": 590,
      "ç³»": 591,
      "ä¸İ": 592,
      "åŁİ": 593,
      "åĪ¶": 594,
      "å¥³": 595,
      "æ¸¯": 596,
      "èĭ±": 597,
      "èĬ": 598,
      "éķ·": 599,
      "è»Ĭ": 600,
      "æģ": 601,
      "ä¸¦": 602,
      "åĸ": 603,
      "èİ": 604,
      "æ°´": 605,
      "å°į": 606,
      "æŃ£": 607,
      "å¸ĥ": 608,
      "çĽ®": 609,
      "åħĥ": 610,
      "ãĥ": 611,
      "åķ": 612,
      "åı¸": 613,
      "åĪĹ": 614,
      "åºľ": 615,
      "18": 616,
      "æ¯Ķ": 617,
      "åı²": 618,
      "åı£": 619,
      "éķ¿": 620,
      "||": 621,
      "åĽĽ": 622,
      "å¡": 623,
      "æŀĹ": 624,
      "Ġ(": 625,
      "00": 626,
      "å²": 627,
      "æİ¥": 628,
      "éŁ³": 629,
      "èĹ": 630,
      "æĿ±": 631,
      "ç¶ĵ": 632,
      "éĸĭ": 633,
      "199": 634,
      "æĪĸ": 635,
      "å¦Ĥ": 636,
      "çľģ": 637,
      "ä¸ŃåĽ½": 638,
      "en": 639,
      "æł¼": 640,
      "æ¢": 641,
      "åıĤ": 642,
      "çĪ¾": 643,
      "èµ·": 644,
      "åĶ": 645,
      "æ¡": 646,
      "å¯¹": 647,
      "12": 648,
      "æĿ¥": 649,
      "è¿Ļ": 650,
      "æľĿ": 651,
      "å¸¸": 652,
      "æł¡": 653,
      "éĩı": 654,
      "ĠĠ": 655,
      "åĳĺ": 656,
      "ar": 657,
      "è«": 658,
      "or": 659,
      "å¿ĥ": 660,
      "æĴ": 661,
      "å°¼": 662,
      "ä¸ľ": 663,
      "éħ": 664,
      "æĪ°": 665,
      "æĶ¹": 666,
      "åĬ¨": 667,
      "al": 668,
      "å·´": 669,
      "æıĲ": 670,
      "çķĮ": 671,
      "âĢĶ": 672,
      "äº¤": 673,
      "éĺ¿": 674,
      "æ·": 675,
      "é¦Ļ": 676,
      "é¦ĸ": 677,
      "ç¨ĭ": 678,
      "èĺ": 679,
      "éĢĻ": 680,
      "äºŀ": 681,
      "å¼Ģ": 682,
      "ç¤¾": 683,
      "æ©Ł": 684,
      "æīĭ": 685,
      "ç¯": 686,
      "çı¾": 687,
      "æĹ¥æľ¬": 688,
      "éľ": 689,
      "æ£": 690,
      "éĸĵ": 691,
      "é«Ķ": 692,
      "éĵ": 693,
      "å¹¶": 694,
      "å¤ª": 695,
      "åĲĳ": 696,
      "çĦ¶": 697,
      "èī²": 698,
      "åŀ": 699,
      "å¨": 700,
      "è°": 701,
      "éģİ": 702,
      "åĵģ": 703,
      "éĽĨ": 704,
      "æµģ": 705,
      "æĦı": 706,
      "11": 707,
      "å°±": 708,
      "å§Ķ": 709,
      "æį": 710,
      "çķ¶": 711,
      "at": 712,
      "å³": 713,
      "ä¿Ŀ": 714,
      "ç©º": 715,
      "åıĥ": 716,
      "éŃ": 717,
      "Ġ||": 718,
      "å½¢": 719,
      "å§ĭ": 720,
      "åĨħ": 721,
      "æĽ²": 722,
      "åħ§": 723,
      "åĥ": 724,
      "çĶµ": 725,
      "å°ĩ": 726,
      "æ²³": 727,
      "çģ£": 728,
      "åıĹ": 729,
      "ç·ļ": 730,
      "Ġ-": 731,
      "ç±³": 732,
      "æ¶": 733,
      "æĹı": 734,
      "äºļ": 735,
      "éĢ²": 736,
      "èº": 737,
      "ĠS": 738,
      "æľº": 739,
      "es": 740,
      "åı¤": 741,
      "åł´": 742,
      "ç»ı": 743,
      "åŃĹ": 744,
      "å®ĺ": 745,
      "äºĶ": 746,
      "åĮħ": 747,
      "ç®¡": 748,
      "äº¬": 749,
      "æĮĩ": 750,
      "ç¿": 751,
      "æ±Ł": 752,
      "é¦Ļæ¸¯": 753,
      "çīĪ": 754,
      "çĽ´": 755,
      "ä½ĵ": 756,
      "å·²": 757,
      "åŀĭ": 758,
      "è±": 759,
      "æ¥Ń": 760,
      "å±ķ": 761,
      "æĽ¾": 762,
      "é¦¬": 763,
      "198": 764,
      "æĪĺ": 765,
      "äºĽ": 766,
      "æķ°": 767,
      "è¦ĸ": 768,
      "èº«": 769,
      "è¿Ľ": 770,
      "ç¥ŀ": 771,
      "æħ": 772,
      "éģĭ": 773,
      "èį": 774,
      "è¨Ń": 775,
      "åĲĦ": 776,
      "ç¨±": 777,
      "è¿ĩ": 778,
      "æĸĻ": 779,
      "æĶ¿åºľ": 780,
      "æĮģ": 781,
      "çµĲ": 782,
      "ä¸ļ": 783,
      "çİ°": 784,
      "å°ĳ": 785,
      "åıį": 786,
      "çłĶ": 787,
      "æķ¸": 788,
      "ic": 789,
      "èĳĹ": 790,
      "åĻ": 791,
      "åį¡": 792,
      "åĦ": 793,
      "æ»": 794,
      "å°Ĩ": 795,
      "ä½¿çĶ¨": 796,
      "æ¹": 797,
      "æ¸ħ": 798,
      "é©¬": 799,
      "ç¬¬ä¸Ģ": 800,
      ")ãĢĤ": 801,
      "çĭ": 802,
      "åħī": 803,
      "æĥħ": 804,
      "è³½": 805,
      "éĹľ": 806,
      "éĹ´": 807,
      "ãĤ": 808,
      "ĠC": 809,
      "å¤«": 810,
      "çĿ": 811,
      "åĳ½": 812,
      "æ´²": 813,
      "è§£": 814,
      "ãģ": 815,
      "æĽ´": 816,
      "éĢł": 817,
      "é¾": 818,
      "ä¿¡": 819,
      "ç²": 820,
      "éļĬ": 821,
      "å¸Ŀ": 822,
      "çļĦä¸Ģ": 823,
      "èı¯": 824,
      "ä»¶": 825,
      "åĽŀ": 826,
      "æŃĮ": 827,
      "éº": 828,
      "è¿ĳ": 829,
      "åİ¿": 830,
      "èĴ": 831,
      "is": 832,
      "ç¹": 833,
      "15": 834,
      "çĥ": 835,
      "çŁ³": 836,
      "he": 837,
      "å±Ģ": 838,
      "ç¼": 839,
      "èĻŁ": 840,
      "åħ¬åı¸": 841,
      "ç§°": 842,
      "æŃ¦": 843,
      "ç½Ĺ": 844,
      "çµ±": 845,
      "èĮ": 846,
      "ç¾ħ": 847,
      "æ´»": 848,
      "çĮ": 849,
      "æ¨Ĥ": 850,
      "äººæ°ĳ": 851,
      "it": 852,
      "ç©¶": 853,
      "æĶ¯": 854,
      "åı¯ä»¥": 855,
      "ç¨®": 856,
      "æĶ¾": 857,
      "ç¢": 858,
      "æĿİ": 859,
      "ç§į": 860,
      "åıĸ": 861,
      "çĳ": 862,
      "åħ©": 863,
      "è³ĩ": 864,
      "åįİ": 865,
      "éĿŀ": 866,
      "èªŀ": 867,
      "çłĶç©¶": 868,
      "è¿Ĳ": 869,
      "è½¦": 870,
      "ç¤º": 871,
      "çĹ": 872,
      "16": 873,
      "äº§": 874,
      "éģ¸": 875,
      "çīĩ": 876,
      "è®¾": 877,
      "èģ¯": 878,
      "åĻ¨": 879,
      "ĠA": 880,
      "æĢ»": 881,
      "éĲ": 882,
      "åķĨ": 883,
      "èģĶ": 884,
      "ç¸½": 885,
      "çĻ½": 886,
      "ç¾İåľĭ": 887,
      "ç»Ł": 888,
      "ĠM": 889,
      "çĦ¡": 890,
      "éĢ£": 891,
      "17": 892,
      "ä¸ĸçķĮ": 893,
      "é¤": 894,
      "ç»Ħ": 895,
      "èĺŃ": 896,
      "æĻ®": 897,
      "è§Ĵ": 898,
      "åıĪ": 899,
      "le": 900,
      "ĠP": 901,
      "çŁ¥": 902,
      "èĤ²": 903,
      "æĩ": 904,
      "æ³¢": 905,
      "åıª": 906,
      "æĶ¶": 907,
      "çĸ": 908,
      "è¯Ń": 909,
      "å½ĵ": 910,
      "åıĤèĢĥ": 911,
      "éģĶ": 912,
      "ç´Ħ": 913,
      "è¨Ģ": 914,
      "åħ³": 915,
      "éĮ": 916,
      "å®ĥ": 917,
      "çĩ": 918,
      "åħŃ": 919,
      "å®Ĺ": 920,
      "ä¼Ĭ": 921,
      "èŃ°": 922,
      "åħĪ": 923,
      "çĶ°": 924,
      "åį³": 925,
      "ç¸£": 926,
      "ç¾©": 927,
      "ç¦ı": 928,
      "éĺŁ": 929,
      "æºĲ": 930,
      "æ¿": 931,
      "ä¸Ńåľĭ": 932,
      "èħ": 933,
      "æĭ¬": 934,
      "æ´¾": 935,
      "çµĦ": 936,
      "ä¸¤": 937,
      "è¨Ī": 938,
      "åı·": 939,
      "æŀľ": 940,
      "èĩº": 941,
      "ä¸»è¦ģ": 942,
      "197": 943,
      "åĬĩ": 944,
      "éĦ": 945,
      "åĪĿ": 946,
      "æĴŃ": 947,
      "æľª": 948,
      "åīĩ": 949,
      "åĳ¨": 950,
      "è©²": 951,
      "éĬ": 952,
      "ä»¥åıĬ": 953,
      "åħµ": 954,
      "æĽ¸": 955,
      "åľŁ": 956,
      "ä¹¦": 957,
      "æļ": 958,
      "åİ»": 959,
      "21": 960,
      "ĠT": 961,
      "çĵ": 962,
      "æŃ»": 963,
      "åĮħæĭ¬": 964,
      "çº¿": 965,
      "æĺ¯ä¸Ģ": 966,
      "Ġt": 967,
      "å¾Ģ": 968,
      "å¤§åŃ¦": 969,
      "ä»Ĭ": 970,
      "æĶ¿æ²»": 971,
      "å¯¦": 972,
      "åĤ³": 973,
      "åħ«": 974,
      "è¯¥": 975,
      "ä»¤": 976,
      "å¨ģ": 977,
      "çļĩ": 978,
      "14": 979,
      "194": 980,
      "åĨį": 981,
      "åħļ": 982,
      "ä»İ": 983,
      "è¾¾": 984,
      "æł¹": 985,
      "èĦ": 986,
      "å®Į": 987,
      "åħ¶ä»ĸ": 988,
      "éĲµ": 989,
      "çĶ·": 990,
      "æĿĳ": 991,
      "åĭĻ": 992,
      "äººåı£": 993,
      "å±ŀ": 994,
      "è®¡": 995,
      "èªª": 996,
      "éĻ¤": 997,
      "éĥ¨åĪĨ": 998,
      "æ¯ı": 999,
      "ro": 1000,
      "30": 1001,
      "åº§": 1002,
      "å¾ŀ": 1003,
      "ä¹ī": 1004,
      "å¤§åŃ¸": 1005,
      "è®®": 1006,
      "æ®µ": 1007,
      "195": 1008,
      "å¼ķ": 1009,
      "çĶ¢": 1010,
      "ĠB": 1011,
      "åĢĳ": 1012,
      "æ§": 1013,
      "åŃ£": 1014,
      "æ¦": 1015,
      ")ãĢģ": 1016,
      "çº¦": 1017,
      "å®ŀ": 1018,
      "åħ°": 1019,
      "æ¾": 1020,
      "st": 1021,
      "åľº": 1022,
      "æĪĳ": 1023,
      "el": 1024,
      "å®£": 1025,
      "åŃĺ": 1026,
      "ç¬¬äºĮ": 1027,
      "å±ħ": 1028,
      "ä¸Ķ": 1029,
      "æīĵ": 1030,
      "å³¶": 1031,
      "çħ": 1032,
      "196": 1033,
      "ä¹Ŀ": 1034,
      "æĬĢ": 1035,
      "æľį": 1036,
      "13": 1037,
      "å·Ŀ": 1038,
      "çĨ": 1039,
      "å¹¿": 1040,
      "ol": 1041,
      "ä¿®": 1042,
      "å¸Į": 1043,
      "ç¾İåĽ½": 1044,
      "ä»¬": 1045,
      "22": 1046,
      "çº§": 1047,
      "è¶ħ": 1048,
      "çķ«": 1049,
      "å¾Ī": 1050,
      "è§Ĩ": 1051,
      "å»£": 1052,
      "åĲī": 1053,
      "åĬ¡": 1054,
      "åŁŁ": 1055,
      "ä¾ĭ": 1056,
      "å¥¹": 1057,
      "åľĺ": 1058,
      "éĢŁ": 1059,
      "èĬ±": 1060,
      "æİ¨": 1061,
      "éĸĢ": 1062,
      "æ¯į": 1063,
      "å¥½": 1064,
      "åħ¶ä¸Ń": 1065,
      "èªį": 1066,
      "()": 1067,
      "åİĨ": 1068,
      "è¶³": 1069,
      "å®¢": 1070,
      "å±¬": 1071,
      "è»Ĭç«Ļ": 1072,
      "æ½": 1073,
      "ion": 1074,
      "åĬŁ": 1075,
      "et": 1076,
      "çįİ": 1077,
      "èĪª": 1078,
      "åħ·": 1079,
      "å°İ": 1080,
      "é¡ŀ": 1081,
      "éĽ»è¦ĸ": 1082,
      "æ¡Ī": 1083,
      "èµĦ": 1084,
      "çģ«": 1085,
      "äº¦": 1086,
      "éĿĴ": 1087,
      "åįļ": 1088,
      "am": 1089,
      "éĶ": 1090,
      "åĵĪ": 1091,
      "ç¡": 1092,
      "ç´Ģ": 1093,
      "æķħ": 1094,
      "çĻ¾": 1095,
      "æ±Ĥ": 1096,
      "å¤®": 1097,
      "è®Ĭ": 1098,
      "çª": 1099,
      "åį°": 1100,
      "éķĩ": 1101,
      "..": 1102,
      "åı°çģ£": 1103,
      "æŁ¥": 1104,
      "å¯Ĩ": 1105,
      "å¤ĸéĥ¨": 1106,
      "åī¯": 1107,
      "å·±": 1108,
      "ç½®": 1109,
      "å¡Ķ": 1110,
      "çĮ®": 1111,
      "å¸«": 1112,
      "å¼µ": 1113,
      "å¢ŀ": 1114,
      "åĸ®": 1115,
      "ä¸ĥ": 1116,
      "çİĩ": 1117,
      "ä¼¯": 1118,
      "ç±»": 1119,
      "æ¹ĸ": 1120,
      "æĶ»": 1121,
      "æ´Ľ": 1122,
      "èĪī": 1123,
      "æĸĩåĮĸ": 1124,
      "èµĽ": 1125,
      "ä¼ł": 1126,
      "çĬ": 1127,
      "ç»´": 1128,
      "æĹ©": 1129,
      "åħ±åĴĮ": 1130,
      "of": 1131,
      "æ¸¸": 1132,
      "è¶Ĭ": 1133,
      "åĽ½å®¶": 1134,
      "é²": 1135,
      "æĬķ": 1136,
      "ĠL": 1137,
      "å®¹": 1138,
      "25": 1139,
      "æŃ·": 1140,
      "å¢ĥ": 1141,
      "çľŁ": 1142,
      "éª": 1143,
      "åı¦": 1144,
      "å°Ī": 1145,
      "èĻķ": 1146,
      "ĊĊ": 1147,
      "çĹħ": 1148,
      "ac": 1149,
      "é¢Ĩ": 1150,
      "ä¸ĩ": 1151,
      "æĩī": 1152,
      "åıĭ": 1153,
      "èĩ´": 1154,
      "æ¨¡": 1155,
      "ä¸Ńå¤®": 1156,
      "æĳ": 1157,
      "ç»ĵ": 1158,
      "ä»½": 1159,
      "åĪ¥": 1160,
      "éĢī": 1161,
      "ç¯Ģ": 1162,
      "ä»£è¡¨": 1163,
      "Ġ200": 1164,
      "re": 1165,
      "çĤ¹": 1166,
      "çį²": 1167,
      "è¯´": 1168,
      "éĴ": 1169,
      "èĲ½": 1170,
      "çıŃ": 1171,
      "åĽ¢": 1172,
      "æ²Ļ": 1173,
      "ä¾Ľ": 1174,
      "æ¬Ĭ": 1175,
      "éĨ": 1176,
      "åĽłæŃ¤": 1177,
      "å¤Ħ": 1178,
      "æľ¨": 1179,
      "è£½": 1180,
      "åĭĴ": 1181,
      "åĬ©": 1182,
      "éĤ£": 1183,
      "é»¨": 1184,
      "åıĥèĢĥ": 1185,
      "ä¸Ńå¿ĥ": 1186,
      "éħį": 1187,
      "æķ´": 1188,
      "23": 1189,
      "æĺĵ": 1190,
      "èĲ¬": 1191,
      "èĭı": 1192,
      "ç´ļ": 1193,
      "ç¾¤": 1194,
      "é»ŀ": 1195,
      "æĵĬ": 1196,
      "å¿Ĺ": 1197,
      "éĽ·": 1198,
      "è¡ĵ": 1199,
      "ä¸Ģä¸ª": 1200,
      "æľ¯": 1201,
      "ĠR": 1202,
      "åºĶ": 1203,
      "åĳĬ": 1204,
      "ä½ľåĵģ": 1205,
      "èĩªå·±": 1206,
      "åĥı": 1207,
      "å®¤": 1208,
      "é»ĳ": 1209,
      "çĪ¶": 1210,
      "æĹł": 1211,
      "us": 1212,
      "é¢¨": 1213,
      "å¯¼": 1214,
      "ä¸ŃçļĦ": 1215,
      "æĥ³": 1216,
      "å¸Ń": 1217,
      "æĪĲçĤº": 1218,
      "æĻ¯": 1219,
      "éĹ¨": 1220,
      "å´": 1221,
      "å·¥ä½ľ": 1222,
      "èĸ": 1223,
      "åħ¬éĩĮ": 1224,
      "å¤±": 1225,
      "éĿ©": 1226,
      "åįĬ": 1227,
      "åĺ": 1228,
      "è¿ĺ": 1229,
      "éĵģ": 1230,
      "éĻĲ": 1231,
      "åĿĩ": 1232,
      "éłĺ": 1233,
      "éĽ»å½±": 1234,
      "è±¡": 1235,
      "è¦ĭ": 1236,
      "as": 1237,
      "ĠH": 1238,
      "çºª": 1239,
      "çĻ»": 1240,
      "il": 1241,
      "è®°": 1242,
      "èĢģ": 1243,
      "ä¹Ĳ": 1244,
      "ä½ķ": 1245,
      "å¾ĭ": 1246,
      "æĦĽ": 1247,
      "è«ĸ": 1248,
      "é£Ł": 1249,
      "åł±": 1250,
      "æİĴ": 1251,
      "ç¶Ń": 1252,
      "ĠD": 1253,
      "æĸĩçĮ®": 1254,
      "Ġof": 1255,
      "å¤ı": 1256,
      "and": 1257,
      "æĦŁ": 1258,
      "å¡ŀ": 1259,
      "å¥¥": 1260,
      "æ°£": 1261,
      "æĸ½": 1262,
      "ä¿Ħ": 1263,
      "å¥§": 1264,
      "çĵ¦": 1265,
      "ãĢĭ(": 1266,
      "å¸Ī": 1267,
      "æ¢Ŀ": 1268,
      "ãĢį,": 1269,
      "å°Ħ": 1270,
      "ãĢĭ,": 1271,
      "om": 1272,
      "å©": 1273,
      "ç´ł": 1274,
      "ĠI": 1275,
      "æ³¨": 1276,
      "éļĽ": 1277,
      "ĠG": 1278,
      "ç´¢": 1279,
      "æ·±": 1280,
      "å¸¶": 1281,
      "éľĢ": 1282,
      "æĲ": 1283,
      "åħ¸": 1284,
      "ç·¨": 1285,
      "æį®": 1286,
      "åı¯èĥ½": 1287,
      "æĪĲç«ĭ": 1288,
      "è¬": 1289,
      "çĽŁ": 1290,
      "ch": 1291,
      "æ°ı": 1292,
      "æķĻèĤ²": 1293,
      "è®¤": 1294,
      "âĢĿãĢĤ": 1295,
      "æ±º": 1296,
      "æĤ": 1297,
      "ç¶²": 1298,
      "éĺ²": 1299,
      "åĽ¾": 1300,
      "æ£®": 1301,
      "è®º": 1302,
      "æ´ĭ": 1303,
      "æŃ¥": 1304,
      "é¾į": 1305,
      "éģĭåĭķ": 1306,
      "æīį": 1307,
      "ĠĠĠĠ": 1308,
      "ed": 1309,
      "æ²Ĵ": 1310,
      "ing": 1311,
      "èĴĻ": 1312,
      "æŃ¢": 1313,
      "åĶ±": 1314,
      "åıĤèĢĥæĸĩçĮ®": 1315,
      "æłĩ": 1316,
      "åłĤ": 1317,
      "ä¸ĢåĢĭ": 1318,
      "24": 1319,
      "ä½Ľ": 1320,
      "éģĬ": 1321,
      "è¨ĺ": 1322,
      "çīĮ": 1323,
      "ä¹ĭä¸Ģ": 1324,
      "ä½įäºİ": 1325,
      "åĵ¥": 1326,
      "èİ·": 1327,
      "ä¸įåĲĮ": 1328,
      "æĬ¥": 1329,
      "ent": 1330,
      "éĸĭå§ĭ": 1331,
      "193": 1332,
      "âĢĶâĢĶ": 1333,
      "éłŃ": 1334,
      "åįĥ": 1335,
      "æĢĿ": 1336,
      "å¥ĩ": 1337,
      "å¯Ł": 1338,
      "åľĴ": 1339,
      "id": 1340,
      "æ±ī": 1341,
      "åľĸ": 1342,
      "ig": 1343,
      "un": 1344,
      "åº·": 1345,
      "çķĻ": 1346,
      "åįķ": 1347,
      "ç«ł": 1348,
      "æīĺ": 1349,
      "ãĢįãĢĤ": 1350,
      "|-": 1351,
      "è¡ĮæĶ¿": 1352,
      "å§Ĩ": 1353,
      "ä½ı": 1354,
      "åıĺ": 1355,
      "çĴ": 1356,
      "äººçī©": 1357,
      "ä»į": 1358,
      "å¼ł": 1359,
      "åĶĲ": 1360,
      "ur": 1361,
      "åįĩ": 1362,
      "è³ĩæĸĻ": 1363,
      "è½ī": 1364,
      "å¿µ": 1365,
      "èĹı": 1366,
      "ä»ĸçļĦ": 1367,
      "æĿĥ": 1368,
      "åĪĻ": 1369,
      "éĻħ": 1370,
      "åľĭå®¶": 1371,
      "ç®Ĺ": 1372,
      "ĠF": 1373,
      "é¡Į": 1374,
      "å¼·": 1375,
      "ĠE": 1376,
      "éĻ¸": 1377,
      "çľĭ": 1378,
      "åīµ": 1379,
      "åĮĹäº¬": 1380,
      "ä½İ": 1381,
      "éĩİ": 1382,
      "ä¾¿": 1383,
      "æĹħ": 1384,
      "æĽ¼": 1385,
      "è§Ģ": 1386,
      "éĻį": 1387,
      "éĺ³": 1388,
      "æİ§": 1389,
      "çº³": 1390,
      "ç§»": 1391,
      "28": 1392,
      "èŃ¦": 1393,
      "é½": 1394,
      "é£¾": 1395,
      "æĬĬ": 1396,
      "çĶ²": 1397,
      "è¦ª": 1398,
      "æī¿": 1399,
      "éĮĦ": 1400,
      "ä½įæĸ¼": 1401,
      "è¡Ĺ": 1402,
      "åģľ": 1403,
      "çĿ£": 1404,
      "æī¹": 1405,
      "æŀĦ": 1406,
      "å¹´ä»£": 1407,
      "è¡ĮæĺŁ": 1408,
      "è¡¨ç¤º": 1409,
      "çĿĢ": 1410,
      "å§Ķåĳĺ": 1411,
      "âĢĿ,": 1412,
      "éĤĦ": 1413,
      "ç²¾": 1414,
      "ç½ĳ": 1415,
      "æŃ²": 1416,
      "æĵļ": 1417,
      "26": 1418,
      "æ¶Ī": 1419,
      "27": 1420,
      "å»ºç«ĭ": 1421,
      "éĽ¢": 1422,
      "ç¥¨": 1423,
      "å¯Į": 1424,
      "èģ·": 1425,
      "è§ģ": 1426,
      "æ¨Ļ": 1427,
      "æ³°": 1428,
      "åĪĴ": 1429,
      "ç°": 1430,
      "åĨł": 1431,
      "ç®¡çĲĨ": 1432,
      "ĠW": 1433,
      "åľ°åĮº": 1434,
      "æİĪ": 1435,
      "æķĪ": 1436,
      "åŁĥ": 1437,
      "åŁİå¸Ĥ": 1438,
      "æµİ": 1439,
      "ä¸ĵ": 1440,
      "æĿ¡": 1441,
      "æ¼¢": 1442,
      "ç¥ĸ": 1443,
      "æĪ²": 1444,
      "åĪ«": 1445,
      "éĬĢ": 1446,
      "ç¼ĸ": 1447,
      "æģ©": 1448,
      "çĪŃ": 1449,
      "åįł": 1450,
      "è¿°": 1451,
      "éĻ³": 1452,
      "è¨±": 1453,
      "éİ": 1454,
      "ä¸ģ": 1455,
      "ä¸ĬçļĦ": 1456,
      "æ°Ķ": 1457,
      "äºī": 1458,
      "åĩºçīĪ": 1459,
      "å²Ľ": 1460,
      "æīĢæľī": 1461,
      "é¤¨": 1462,
      "åŃ¦éĻ¢": 1463,
      "ĠN": 1464,
      "èĬĤ": 1465,
      "å®Ī": 1466,
      "é¬": 1467,
      "å·¥ç¨ĭ": 1468,
      "æ²Ĵæľī": 1469,
      "éĻĦ": 1470,
      "éĤ¦": 1471,
      "çĳŀ": 1472,
      "è©±": 1473,
      "è¿ª": 1474,
      "èĹĿ": 1475,
      "æģ¯": 1476,
      "zh": 1477,
      "æŃ£å¼ı": 1478,
      "ä¾Ŀ": 1479,
      "å¹´çļĦ": 1480,
      "æĬĹ": 1481,
      "åģļ": 1482,
      "è³ª": 1483,
      "å¼Ģå§ĭ": 1484,
      "çħ§": 1485,
      "æ§ĭ": 1486,
      "çºĮ": 1487,
      "éŁ³æ¨Ĥ": 1488,
      "åĨ³": 1489,
      "åºķ": 1490,
      "å¯º": 1491,
      "è¼ĥ": 1492,
      "é»ĥ": 1493,
      "åİĨåı²": 1494,
      "éĢ£çµĲ": 1495,
      "åĩ»": 1496,
      "åľ°åįĢ": 1497,
      "äº¡": 1498,
      "èĩºçģ£": 1499,
      "çīĻ": 1500,
      "éĢ²è¡Į": 1501,
      "æ²¡": 1502,
      "æľĽ": 1503,
      "å»¶": 1504,
      "ĠĊĠĊ": 1505,
      "åī§": 1506,
      "èĺĩ": 1507,
      "ä¸Ńèı¯": 1508,
      "}-": 1509,
      "æ°¸": 1510,
      "åĢĻ": 1511,
      "å°ģ": 1512,
      "ä¸¹": 1513,
      "29": 1514,
      "è´¨": 1515,
      "è¿Ľè¡Į": 1516,
      "æ¾³": 1517,
      "æŃĲ": 1518,
      "æĺ¥": 1519,
      "æĪĲä¸º": 1520,
      "å¤į": 1521,
      "é§": 1522,
      "çĩŁ": 1523,
      "èģĸ": 1524,
      "50": 1525,
      "Ġthe": 1526,
      "è°ĥ": 1527,
      "è£Ŀ": 1528,
      "ç´į": 1529,
      "å¤§çļĦ": 1530,
      "è¿ĲåĬ¨": 1531,
      "èª¿": 1532,
      "å®ĭ": 1533,
      "åħĴ": 1534,
      "èĶ": 1535,
      "âĢĵ": 1536,
      "æł¸": 1537,
      "ç¬¬ä¸ī": 1538,
      "äººçļĦ": 1539,
      "åĽłçĤº": 1540,
      "åħ±åĴĮåĽ½": 1541,
      "è§Ħ": 1542,
      "èĵ": 1543,
      "åĲ«": 1544,
      "ad": 1545,
      "çªģ": 1546,
      "2013": 1547,
      "æ¤": 1548,
      "èªįçĤº": 1549,
      "ä¸Ĭæµ·": 1550,
      "2017": 1551,
      "ä¸Ńåįİ": 1552,
      "éĽĦ": 1553,
      "çł´": 1554,
      "åĢ¼": 1555,
      "-{": 1556,
      "èĪ¹": 1557,
      "é£İ": 1558,
      "å¿«": 1559,
      "å¿ħ": 1560,
      "æĪ¿": 1561,
      "åĩĨ": 1562,
      "èĭ±åľĭ": 1563,
      "ä½³": 1564,
      "å¸¦": 1565,
      "2010": 1566,
      "äºĭä»¶": 1567,
      "éĤĬ": 1568,
      "(),": 1569,
      "å·¦": 1570,
      "ä¸¾": 1571,
      "åįĶ": 1572,
      "æĭ¿": 1573,
      "å¤ĸéĥ¨éĢ£çµĲ": 1574,
      "æĿ¾": 1575,
      "åķı": 1576,
      "èģ²": 1577,
      "è¡Ľ": 1578,
      "æŃ·åı²": 1579,
      "ä¸ĢäºĽ": 1580,
      "é£Ľ": 1581,
      "åį«": 1582,
      "å°ıè¡ĮæĺŁ": 1583,
      "çµ¦": 1584,
      "æıĲä¾Ľ": 1585,
      "åĺī": 1586,
      "åĿ¦": 1587,
      "éĻĨ": 1588,
      "åĬŀ": 1589,
      "éĩįè¦ģ": 1590,
      "é¢ĺ": 1591,
      "éļ¨": 1592,
      "çĶ±æĸ¼": 1593,
      "Ġd": 1594,
      "èĪ¬": 1595,
      "2012": 1596,
      "çµĤ": 1597,
      "èĪĪ": 1598,
      "ãĢĭãĢģ": 1599,
      "åľĭéļĽ": 1600,
      "åĩºçĶŁ": 1601,
      "åĪĽ": 1602,
      "ä¹Łæĺ¯": 1603,
      "åª": 1604,
      "ĠãĢĬ": 1605,
      "åºĹ": 1606,
      "éĢĢ": 1607,
      "éĨ«": 1608,
      "é¦Ĩ": 1609,
      "è¾¦": 1610,
      "çŃĸ": 1611,
      "èģĮ": 1612,
      "éĻ½": 1613,
      "èĽ": 1614,
      "æ®º": 1615,
      "æ¬§": 1616,
      "ä¼¼": 1617,
      "éļĨ": 1618,
      "éĹ®": 1619,
      "å¼º": 1620,
      "æĨ": 1621,
      "éĥ¡": 1622,
      "è¦ı": 1623,
      "å¥ĸ": 1624,
      "ç£": 1625,
      "å¼Ł": 1626,
      "åł¡": 1627,
      "åħ¨åĽ½": 1628,
      "çľ¾": 1629,
      "åįı": 1630,
      "ä¹ħ": 1631,
      "å¹³æĸ¹": 1632,
      "é¹": 1633,
      "é³": 1634,
      "éłħ": 1635,
      "ç±į": 1636,
      "æ¯Ľ": 1637,
      "åı³": 1638,
      "æ¢ħ": 1639,
      "ä»ĭ": 1640,
      "åºı": 1641,
      "åĤĻ": 1642,
      "é»Ħ": 1643,
      "æ¨£": 1644,
      "æĶ¯æĮģ": 1645,
      "æ²¡æľī": 1646,
      "iv": 1647,
      "èĲ¨": 1648,
      "èµ°": 1649,
      "ç¦»": 1650,
      "è½¬": 1651,
      "è¿ŀ": 1652,
      "åĪ¤": 1653,
      "æ¥µ": 1654,
      "éĦī": 1655,
      "è¼¯": 1656,
      "um": 1657,
      "èŀ": 1658,
      "èµ¤": 1659,
      "è©ķ": 1660,
      "éĢļè¿ĩ": 1661,
      "ä»ĸåĢĳ": 1662,
      "æĬ¤": 1663,
      "ä¸»ä¹ī": 1664,
      "å²¸": 1665,
      "ç§¯": 1666,
      "é¾Ļ": 1667,
      "ĠĊĊ": 1668,
      "æ³ķåĽ½": 1669,
      "é¥": 1670,
      "æĸ¹éĿ¢": 1671,
      "èİ«": 1672,
      "æŀ¶": 1673,
      "èĩªçĶ±": 1674,
      "çŃĳ": 1675,
      "è§Ĥ": 1676,
      "éŁĵ": 1677,
      "çį¨": 1678,
      "Ġp": 1679,
      "è©ŀ": 1680,
      "ut": 1681,
      "è®¤ä¸º": 1682,
      "é²ģ": 1683,
      "ãĥ»": 1684,
      "çļĦäºº": 1685,
      "éĢĿ": 1686,
      "è®¸": 1687,
      "åĪĩ": 1688,
      "éŁ¿": 1689,
      "æľĹ": 1690,
      "éĽĻ": 1691,
      "éĽħ": 1692,
      "èī¾": 1693,
      "ag": 1694,
      "é¼": 1695,
      "çķ¶æĻĤ": 1696,
      "è£ħ": 1697,
      "çĶŁæ´»": 1698,
      "å¾®": 1699,
      "åºŃ": 1700,
      "ation": 1701,
      "éļı": 1702,
      "çŁŃ": 1703,
      "äº¤éĢļ": 1704,
      "ç³»çµ±": 1705,
      "ç©į": 1706,
      "Ġf": 1707,
      "çĻ¼å±ķ": 1708,
      "å³°": 1709,
      "ç»ĩ": 1710,
      "ä½Ĩæĺ¯": 1711,
      "2014": 1712,
      "2016": 1713,
      "åĽ½éĻħ": 1714,
      "ĠO": 1715,
      "ç´ħ": 1716,
      "éŃļ": 1717,
      "Ġs": 1718,
      "è©¦": 1719,
      "å½¹": 1720,
      "Ġand": 1721,
      "å¤´": 1722,
      "ĠK": 1723,
      "40": 1724,
      "èĭ¥": 1725,
      "æ²¹": 1726,
      "è®ĵ": 1727,
      "æ¿Ł": 1728,
      "èĥ¡": 1729,
      "æĹĹ": 1730,
      "ä¹ĭå¾Į": 1731,
      "èĥĮ": 1732,
      "ot": 1733,
      "ia": 1734,
      "çļ®": 1735,
      "ãĢĭãĢģãĢĬ": 1736,
      "åľ°æĸ¹": 1737,
      "åŃĺåľ¨": 1738,
      "éĵģè·¯": 1739,
      "çĴ°": 1740,
      "ç»Ļ": 1741,
      "2009": 1742,
      "é¡¹": 1743,
      "ä¾ĭå¦Ĥ": 1744,
      "åĬĥ": 1745,
      "ĠJ": 1746,
      "åĮ»": 1747,
      "ä¸ĸçºª": 1748,
      "åĽŃ": 1749,
      "æľ«": 1750,
      "èŃ·": 1751,
      "èĮĥ": 1752,
      "ç»ıæµİ": 1753,
      "çİ¯": 1754,
      "ul": 1755,
      "000": 1756,
      "ç§Ģ": 1757,
      "è«¾": 1758,
      "å®®": 1759,
      "å®ģ": 1760,
      "åĸľ": 1761,
      "å°ļ": 1762,
      "è¡Ģ": 1763,
      "åıĥèĢĥè³ĩæĸĻ": 1764,
      "èĲ¥": 1765,
      "ay": 1766,
      "æĪı": 1767,
      "è¶³çĲĥ": 1768,
      "éĢģ": 1769,
      "è²ł": 1770,
      "çį²å¾Ĺ": 1771,
      "ow": 1772,
      "Ġ199": 1773,
      "ç³»åĪĹ": 1774,
      "èµ«": 1775,
      "éģŃ": 1776,
      "åĲĽ": 1777,
      "éĥİ": 1778,
      "ç¤¾ä¼ļ": 1779,
      "ç½²": 1780,
      "éŃĶ": 1781,
      "èī¯": 1782,
      "æ°ĳä¸»": 1783,
      "å°¾": 1784,
      "å¯«": 1785,
      "2011": 1786,
      "èİ·å¾Ĺ": 1787,
      "æľĢé«ĺ": 1788,
      "æĳ©": 1789,
      "åĢ«": 1790,
      "ä¹ĺ": 1791,
      "æ°ĳåľĭ": 1792,
      "åĲĮæĻĤ": 1793,
      "im": 1794,
      "ç¹¼": 1795,
      "éħĴ": 1796,
      "2020": 1797,
      "çķ¥": 1798,
      "éģĬæĪ²": 1799,
      "ä»ĸä»¬": 1800,
      "ç«¯": 1801,
      "ç³»ç»Ł": 1802,
      "å¤§åĪ©": 1803,
      "æł·": 1804,
      "å§Ķåĵ¡": 1805,
      "åį°åº¦": 1806,
      "å¹²": 1807,
      "æĿŁ": 1808,
      "Ġc": 1809,
      "æª": 1810,
      "éİ®": 1811,
      "å¼Ĺ": 1812,
      "op": 1813,
      "è¾¹": 1814,
      "æĻļ": 1815,
      "37": 1816,
      "å¾ģ": 1817,
      "æĻĤéĸĵ": 1818,
      "èĴĤ": 1819,
      "èī¦": 1820,
      "ct": 1821,
      "æĵĶ": 1822,
      "60": 1823,
      "è°·": 1824,
      "è²¬": 1825,
      "åĶ®": 1826,
      "è¯º": 1827,
      "ä¸ĢèĪ¬": 1828,
      "çĨ±": 1829,
      "èı²": 1830,
      "éĢĲ": 1831,
      "os": 1832,
      "od": 1833,
      "åĨľ": 1834,
      "å§Ķåĳĺä¼ļ": 1835,
      "æľ±": 1836,
      "éľĢè¦ģ": 1837,
      "èĢ¶": 1838,
      "åĸĦ": 1839,
      "å¤ĩ": 1840,
      "2021": 1841,
      "æ´¥": 1842,
      "å¾©": 1843,
      "ap": 1844,
      "èİ±": 1845,
      "ä¼¦": 1846,
      "æºĸ": 1847,
      "æĿĲ": 1848,
      "åĪĹè¡¨": 1849,
      "äººæ°ĳåħ±åĴĮåĽ½": 1850,
      "è¾ĥ": 1851,
      "çĭĢ": 1852,
      "çº¢": 1853,
      "æ¼Ķåĵ¡": 1854,
      "é¸": 1855,
      "æ²¿": 1856,
      "ĊĠ": 1857,
      "è²»": 1858,
      "Ġb": 1859,
      "ç¹Ķ": 1860,
      "2018": 1861,
      "åĪ°äºĨ": 1862,
      "éĵ¾": 1863,
      "èįī": 1864,
      "èĩ£": 1865,
      "å©ļ": 1866,
      "åľ£": 1867,
      "èµĦæĸĻ": 1868,
      "èīº": 1869,
      "æ¯Ĵ": 1870,
      "ä¼ģ": 1871,
      "åħį": 1872,
      "éĿ©åĳ½": 1873,
      "ç»Ħç»ĩ": 1874,
      "2015": 1875,
      "è¿½": 1876,
      "çĪĨ": 1877,
      "ç¤¾æľĥ": 1878,
      "åħ¼": 1879,
      "çĶµå½±": 1880,
      "èĪŀ": 1881,
      "ç¯ĢçĽ®": 1882,
      "åĬī": 1883,
      "éŃ¯": 1884,
      "ç¨±çĤº": 1885,
      "ir": 1886,
      "è¦ģæ±Ĥ": 1887,
      "æĸ¹å¼ı": 1888,
      "å»ºçŃĳ": 1889,
      "å®³": 1890,
      "èŃī": 1891,
      "åģĩ": 1892,
      "å·®": 1893,
      "è¯ģ": 1894,
      "ä½ľä¸º": 1895,
      "ä¸»å¸Ń": 1896,
      "èĸ©": 1897,
      "ter": 1898,
      "çĭ¬": 1899,
      "åľį": 1900,
      "åĨĻ": 1901,
      "2019": 1902,
      "çĥĪ": 1903,
      "åĮĹéĥ¨": 1904,
      "äºĮåįģ": 1905,
      "):": 1906,
      "çİī": 1907,
      "çį»": 1908,
      "çĶ»": 1909,
      "èľ": 1910,
      "å±Ĭ": 1911,
      "å±Ĩ": 1912,
      "åį·": 1913,
      "æ¨ĵ": 1914,
      "åıĳå±ķ": 1915,
      "ç»Ī": 1916,
      "æĪĲåĬŁ": 1917,
      "ä»ģ": 1918,
      "åħ´": 1919,
      "Ġin": 1920,
      "ç½ª": 1921,
      "æķ£": 1922,
      "em": 1923,
      "çĶ±äºİ": 1924,
      "å®ĩ": 1925,
      "ä¸Ńåįİäººæ°ĳåħ±åĴĮåĽ½": 1926,
      "190": 1927,
      "èĤ¡": 1928,
      "åŃ¦å®¶": 1929,
      "çĪ±": 1930,
      "æ¤į": 1931,
      "æľĢå¾Į": 1932,
      "ĠV": 1933,
      "ç»Ń": 1934,
      "åĬłåħ¥": 1935,
      "å°±æĺ¯": 1936,
      "äºĴ": 1937,
      "å½ķ": 1938,
      "2008": 1939,
      "å·¡": 1940,
      "çĶļ": 1941,
      "åĭĿ": 1942,
      "ä¸Ńåħ±": 1943,
      "ä¸ĸç´Ģ": 1944,
      "éĢļå¸¸": 1945,
      "æļ´": 1946,
      "çĽ®åīį": 1947,
      "æĻĤæľŁ": 1948,
      "æ°ĳæĹı": 1949,
      "æķĹ": 1950,
      "èĭ±åĽ½": 1951,
      "åĦ¿": 1952,
      "èĨ": 1953,
      "å½¢æĪĲ": 1954,
      "æĺĮ": 1955,
      "éĢĿä¸ĸ": 1956,
      "æıĲåĩº": 1957,
      "æħĭ": 1958,
      "çļĦå¤§": 1959,
      "å®ĮæĪĲ": 1960,
      "åĵį": 1961,
      "æİ§åĪ¶": 1962,
      "è·Ŀ": 1963,
      "ers": 1964,
      "äº²": 1965,
      "æĻº": 1966,
      "è¯Ħ": 1967,
      "å®ĺæĸ¹": 1968,
      "ä½ľçĤº": 1969,
      "éĩĩ": 1970,
      "éħ¸": 1971,
      "å£°": 1972,
      "åĪĺ": 1973,
      "çĽĽ": 1974,
      "åıĹåĪ°": 1975,
      "åĩºçı¾": 1976,
      "æĵį": 1977,
      "æ¸¬": 1978,
      "éĻĪ": 1979,
      "ä»Ģ": 1980,
      "æīĢä»¥": 1981,
      "è£½ä½ľ": 1982,
      "é»İ": 1983,
      "å½±éŁ¿": 1984,
      "åªĴ": 1985,
      "åŃ¸æł¡": 1986,
      ":âĢľ": 1987,
      "ãĢĭãĢĤ": 1988,
      "ä¼Ĺ": 1989,
      "æİ¢": 1990,
      "Ġm": 1991,
      "æĸ¯çī¹": 1992,
      "31": 1993,
      "æ¼«": 1994,
      "è¼ī": 1995,
      "80": 1996,
      "æĹ¶æľŁ": 1997,
      "è£¡": 1998,
      "æĺİæľĿ": 1999,
      "èĪªç©º": 2000,
      "æĪĲåĵ¡": 2001,
      "ä½Ļ": 2002,
      "åŃ¦æł¡": 2003,
      "36": 2004,
      "æŃĮæĽ²": 2005,
      "å½Ī": 2006,
      "èį·": 2007,
      "ç°¡": 2008,
      "åŃ¸å®¶": 2009,
      "è¨Ńè¨Ī": 2010,
      "æ¢ģ": 2011,
      "ä¿Ĥ": 2012,
      "æľīä¸Ģ": 2013,
      "é±": 2014,
      "çīĽ": 2015,
      "å¸ķ": 2016,
      "ç¯ĩ": 2017,
      "æ©ĭ": 2018,
      "å±¤": 2019,
      "åĲĪä½ľ": 2020,
      "äºĪ": 2021,
      "é£ŀ": 2022,
      "æĮī": 2023,
      "ä¸»ç¾©": 2024,
      "æ¬¾": 2025,
      "åŃ¸éĻ¢": 2026,
      "æĺŃ": 2027,
      "èĪ°": 2028,
      "éĵ¾æİ¥": 2029,
      "è¯į": 2030,
      "çĽĳ": 2031,
      "åĩł": 2032,
      "=\"": 2033,
      "(,": 2034,
      "è¯Ŀ": 2035,
      "éĲµè·¯": 2036,
      "è¯ķ": 2037,
      "çĻ¼çı¾": 2038,
      "å¤ľ": 2039,
      "çĶŁçī©": 2040,
      "åĿĢ": 2041,
      "éĢłæĪĲ": 2042,
      "è§Ĵèī²": 2043,
      "å±Ĥ": 2044,
      "æº«": 2045,
      "éģł": 2046,
      "åĲĮå¹´": 2047,
      "Ġå°ıè¡ĮæĺŁ": 2048,
      "äºĳ": 2049,
      "åĪĬ": 2050,
      "æĺ¯åľ¨": 2051,
      "åħ·æľī": 2052,
      "ãĢĤâĢĿ": 2053,
      "éłĲ": 2054,
      "ç¦ģ": 2055,
      "ç»§": 2056,
      "äºĨä¸Ģ": 2057,
      "æºª": 2058,
      "çĽ£": 2059,
      "ãĢį(": 2060,
      "åĭ¢": 2061,
      "èĤ¯": 2062,
      "åīįå¾Ģ": 2063,
      "han": 2064,
      "æı´": 2065,
      "ç¶ĵæ¿Ł": 2066,
      "åĦª": 2067,
      "è´Ŀ": 2068,
      "ç§ĺ": 2069,
      "æ¸©": 2070,
      "éłĵ": 2071,
      "è²Ŀ": 2072,
      "äºķ": 2073,
      "å¾Ĵ": 2074,
      "çĽ¸éĹľ": 2075,
      "ist": 2076,
      "2007": 2077,
      "2000": 2078,
      "æĬĢæľ¯": 2079,
      "æĪ¶": 2080,
      "åĿĲ": 2081,
      "éĽĸ": 2082,
      "è®Ģ": 2083,
      "åĲĮæĹ¶": 2084,
      "éĢı": 2085,
      "æľĢä½³": 2086,
      "æķĳ": 2087,
      "å±ĭ": 2088,
      "æĿĢ": 2089,
      "ç¿°": 2090,
      "100": 2091,
      "æŀģ": 2092,
      "ç¬¦": 2093,
      "å¢ŀåĬł": 2094,
      "åĥ¹": 2095,
      "æĺł": 2096,
      "å»·": 2097,
      "åķŁ": 2098,
      "éºĹ": 2099,
      "çĶµè§Ĩ": 2100,
      "æ¦Ĥ": 2101,
      "ç¦®": 2102,
      "ä¹ĭéĸĵ": 2103,
      "æĿ¿": 2104,
      "éĽª": 2105,
      "æĭľ": 2106,
      "ä¹¡": 2107,
      "å¾Įä¾Ĩ": 2108,
      "çļĦæĺ¯": 2109,
      "ä½ł": 2110,
      "ä¸»æķĻ": 2111,
      "å¸Ĥéķĩ": 2112,
      "åıĤèĢĥèµĦæĸĻ": 2113,
      "åĪĳ": 2114,
      "90": 2115,
      "é¡¯": 2116,
      "åŁ·": 2117,
      "70": 2118,
      "ç«¥": 2119,
      "å¤ĸéĥ¨éĵ¾æİ¥": 2120,
      "æ»¿": 2121,
      "æ´»åĭķ": 2122,
      "å§ĵ": 2123,
      "Ġ3": 2124,
      "2006": 2125,
      "çµĦç¹Ķ": 2126,
      "æµĭ": 2127,
      "og": 2128,
      "çĦ¶èĢĮ": 2129,
      "çĥŃ": 2130,
      "ç¢º": 2131,
      "å°Īè¼¯": 2132,
      "éĽ²": 2133,
      "åį»": 2134,
      "ä¹ĭåĲİ": 2135,
      "æĪĺäºī": 2136,
      "å¯¶": 2137,
      "èķ": 2138,
      "åıĮ": 2139,
      "æĿľ": 2140,
      "æİ¡": 2141,
      "éĩĭ": 2142,
      "åļ": 2143,
      "æ¡¥": 2144,
      "å·¨": 2145,
      "èĲĬ": 2146,
      "å®£å¸ĥ": 2147,
      "ä»»ä½ķ": 2148,
      "åĽ´": 2149,
      "æĭħ": 2150,
      "oc": 2151,
      "ç§ģ": 2152,
      "th": 2153,
      "ç§ĭ": 2154,
      "ä½Ĳ": 2155,
      "çĽĬ": 2156,
      "åįĹéĥ¨": 2157,
      "2005": 2158,
      "æ¸¸æĪı": 2159,
      "æ³ģ": 2160,
      "ä½Ī": 2161,
      "æĵĶä»»": 2162,
      ":ãĢĮ": 2163,
      "æĭį": 2164,
      "åĲ¸": 2165,
      "åĪ»": 2166,
      "åıªæľī": 2167,
      "è¿ĻäºĽ": 2168,
      "åĥħ": 2169,
      "æķħäºĭ": 2170,
      "éĿĪ": 2171,
      "48": 2172,
      "è¨±å¤ļ": 2173,
      "è«ĭ": 2174,
      "ãĢī": 2175,
      "åºĦ": 2176,
      "ä¸Ńèı¯æ°ĳåľĭ": 2177,
      "å¹¾": 2178,
      "éĭ": 2179,
      "ãĢĪ": 2180,
      "æİ¥åıĹ": 2181,
      "èĩªå·±çļĦ": 2182,
      "æķ¦": 2183,
      "æŁĲ": 2184,
      "æĸĹ": 2185,
      "éªĮ": 2186,
      "ç¡®": 2187,
      "éĹľä¿Ĥ": 2188,
      "æŃĮæīĭ": 2189,
      "æľīéĻĲ": 2190,
      "å²ģ": 2191,
      "æ··": 2192,
      "æ§į": 2193,
      "èĩªçĦ¶": 2194,
      "çĪµ": 2195,
      "2004": 2196,
      "å¹³æĸ¹åħ¬éĩĮ": 2197,
      "åĭķçķ«": 2198,
      "å¾ĹåĪ°": 2199,
      "èģŀ": 2200,
      "35": 2201,
      ",ãĢĬ": 2202,
      "æĸ¹æ³ķ": 2203,
      "èĳī": 2204,
      "è¨Ĭ": 2205,
      "åı¦å¤ĸ": 2206,
      "éģĹ": 2207,
      "å¦Ĥæŀľ": 2208,
      "ç§¦": 2209,
      "Ġ198": 2210,
      "æıı": 2211,
      "åĮ¹": 2212,
      "ç¯ī": 2213,
      "åºĵ": 2214,
      "åľĭæ°ĳ": 2215,
      "é¡¿": 2216,
      "æ²ĥ": 2217,
      "ab": 2218,
      "åĲįçļĦ": 2219,
      "çĬ¯": 2220,
      "åºĨ": 2221,
      "åº«": 2222,
      "åįģäºĮ": 2223,
      "æĢģ": 2224,
      "éŃı": 2225,
      "ç§°ä¸º": 2226,
      "97": 2227,
      "éĢĻäºĽ": 2228,
      "å½±åĵį": 2229,
      "ĠU": 2230,
      "éĿŀå¸¸": 2231,
      "åĵ²": 2232,
      "è®¾è®¡": 2233,
      "çĻ¼çĶŁ": 2234,
      "ç·¯": 2235,
      "ĠSt": 2236,
      "Ġw": 2237,
      "è¿Ļä¸ª": 2238,
      "ä»ħ": 2239,
      "ç¬¬åĽĽ": 2240,
      "å¨ľ": 2241,
      "éĢĶ": 2242,
      "éģĩ": 2243,
      "æĴ¤": 2244,
      "åĲ¦": 2245,
      "åĽłä¸º": 2246,
      "é£¾æ¼Ķ": 2247,
      "è²łè²¬": 2248,
      "éĽ£": 2249,
      "ç¿Ĵ": 2250,
      "è´¹": 2251,
      "è§£æĶ¾": 2252,
      "å¾·åĽ½": 2253,
      "æ¥¼": 2254,
      "çľ¼": 2255,
      "èŃĺ": 2256,
      "å¥³æĢ§": 2257,
      "éĥ½æĺ¯": 2258,
      "ä¸ĢçĽ´": 2259,
      "éĻ¤äºĨ": 2260,
      "çķ°": 2261,
      "è¾ĸ": 2262,
      "åĽº": 2263,
      "ç¿»": 2264,
      "ht": 2265,
      "åŃ«": 2266,
      "ç«¹": 2267,
      "æ³ķåľĭ": 2268,
      "è¾²": 2269,
      "æľŁéĸĵ": 2270,
      "æ³ī": 2271,
      "çĬ¶": 2272,
      "é¦ĸæ¬¡": 2273,
      "ç§ĳåŃ¦": 2274,
      "å¿ł": 2275,
      "é¨": 2276,
      "èĢ³": 2277,
      "45": 2278,
      "çĻ¼è¡Į": 2279,
      "éŁ³ä¹Ĳ": 2280,
      "æķĻæİĪ": 2281,
      "çĥı": 2282,
      "çĤ®": 2283,
      "èģļ": 2284,
      "è´£": 2285,
      "çīĪæľ¬": 2286,
      "è¿Ķ": 2287,
      "éĻµ": 2288,
      "åĿ¡": 2289,
      "éĹ®é¢ĺ": 2290,
      "åħħ": 2291,
      "ä¸įæĺ¯": 2292,
      "åģ¥": 2293,
      "å½ĵæĹ¶": 2294,
      "ä¸´": 2295,
      "ç©Ĩ": 2296,
      "è½½": 2297,
      "æĥł": 2298,
      "åķıé¡Į": 2299,
      "éĿł": 2300,
      "åĪº": 2301,
      "å¾·åľĭ": 2302,
      "åĶ¯": 2303,
      "è¿ľ": 2304,
      "é®": 2305,
      "æĹ¶éĹ´": 2306,
      "èĥŀ": 2307,
      "åĲįçĤº": 2308,
      "av": 2309,
      "è·Ł": 2310,
      "ie": 2311,
      "éĵ¶": 2312,
      "æŃ¤å¤ĸ": 2313,
      "åħ¬è·¯": 2314,
      "æ¿Ģ": 2315,
      "ä¹İ": 2316,
      "åĨ°": 2317,
      "Ġ1": 2318,
      "ä¸»æĮģ": 2319,
      "ä¹Į": 2320,
      "çİ©": 2321,
      "åĳ¼": 2322,
      "åįĪ": 2323,
      "ç®Ģ": 2324,
      "è¤": 2325,
      "æľįåĭĻ": 2326,
      "åŁºæľ¬": 2327,
      "å®īåħ¨": 2328,
      "çĶ·åŃĲ": 2329,
      "éº¥": 2330,
      "ä¹Łæľī": 2331,
      "çĤºäºĨ": 2332,
      "æ¦®": 2333,
      "å£ĵ": 2334,
      "çļĦä¸Ģä¸ª": 2335,
      "éĽ¨": 2336,
      "å¾Ĳ": 2337,
      "åŃ¸çĶŁ": 2338,
      "æł¹æį®": 2339,
      "æ¸ħæľĿ": 2340,
      "....": 2341,
      "çłģ": 2342,
      "åįĹäº¬": 2343,
      "åĲ³": 2344,
      "å¹ķ": 2345,
      "ä»¥ä¸ĭ": 2346,
      "çĶº": 2347,
      "ç»Ĩ": 2348,
      "åı¬": 2349,
      "éľ²": 2350,
      "çĲ´": 2351,
      "ä¼ļè®®": 2352,
      "å«": 2353,
      "æĪ°çĪŃ": 2354,
      "æĪ·": 2355,
      "ç¼º": 2356,
      "å¤§éĩı": 2357,
      "åħ±äº§": 2358,
      "æĸ·": 2359,
      "çļĨ": 2360,
      "ç¯Ħ": 2361,
      "é¬¥": 2362,
      "æ°§": 2363,
      "çĽ´æİ¥": 2364,
      "æĭĶ": 2365,
      "èģĶåĲĪ": 2366,
      "èİī": 2367,
      "è½Ħ": 2368,
      "éı": 2369,
      "å¦»": 2370,
      "ä¼ĳ": 2371,
      "ä¾µ": 2372,
      "åıĳçİ°": 2373,
      "èĩªæ²»": 2374,
      "ce": 2375,
      "æŁı": 2376,
      "èĪĬ": 2377,
      "éĢĻåĢĭ": 2378,
      "è¨Ńæľī": 2379,
      "2003": 2380,
      "èĥ½åĬĽ": 2381,
      "çĶļèĩ³": 2382,
      "åħĭæĸ¯": 2383,
      "å®ĹæķĻ": 2384,
      "2022": 2385,
      "é©Ĺ": 2386,
      "æĶ¿çŃĸ": 2387,
      "ç¸½çµ±": 2388,
      "ub": 2389,
      "ç¾½": 2390,
      "å°º": 2391,
      "æĵģ": 2392,
      "éĿ¢ç§¯": 2393,
      "è¯»": 2394,
      "æ®¿": 2395,
      "å½¢å¼ı": 2396,
      "å»ºç¯ī": 2397,
      "å²©": 2398,
      "å®Įåħ¨": 2399,
      "å¾ħ": 2400,
      "æĺ¾": 2401,
      "ä»·": 2402,
      "ov": 2403,
      "ä½ľå®¶": 2404,
      "åĤ·": 2405,
      "çµķ": 2406,
      "ĠÐ": 2407,
      "åĿĳ": 2408,
      "æ»¡": 2409,
      "å¥³åŃĲ": 2410,
      "æĬµ": 2411,
      "æĢ¥": 2412,
      "æ´ª": 2413,
      "å»³": 2414,
      "ä¹ĭåīį": 2415,
      "éĢĥ": 2416,
      "æ³ķå¾ĭ": 2417,
      "ç¾ħæĸ¯": 2418,
      "åįļçī©": 2419,
      "å®«": 2420,
      "2001": 2421,
      "æ½®": 2422,
      "åıĳçĶŁ": 2423,
      "éĻĦè¿ĳ": 2424,
      "SB": 2425,
      "çī©çĲĨ": 2426,
      "æĸĩçį»": 2427,
      "èŀį": 2428,
      "åħĦ": 2429,
      "å§Ķåĵ¡æľĥ": 2430,
      "å¥Ī": 2431,
      "ä¹ĭéĹ´": 2432,
      "ãĥ¼": 2433,
      "ä¾¯": 2434,
      "åı¦ä¸Ģ": 2435,
      "ä¸įèĥ½": 2436,
      "éŁ©": 2437,
      "è¿«": 2438,
      "è¼ķ": 2439,
      "âĶ": 2440,
      "çļĩå¸Ŀ": 2441,
      "å°¤": 2442,
      "åĪ©çĶ¨": 2443,
      "èŃ¯": 2444,
      "å·´å£«": 2445,
      "æł¹æĵļ": 2446,
      "éŁĵåľĭ": 2447,
      "æī¾": 2448,
      "å¥ı": 2449,
      "éĽĸçĦ¶": 2450,
      "è´Ł": 2451,
      "éłĪ": 2452,
      "ign": 2453,
      "å¹³åĿĩ": 2454,
      "ä¿ĿæĬ¤": 2455,
      "æŁĵ": 2456,
      "èıĮ": 2457,
      "æĹ§": 2458,
      "æĹĭ": 2459,
      "èĿ": 2460,
      "åĪĨå¸ĥ": 2461,
      "åļ´": 2462,
      "Ġ18": 2463,
      "ä»ĸåľ¨": 2464,
      "æ¨¹": 2465,
      "å¹´èĩ³": 2466,
      "åĤĳ": 2467,
      "è±Ĳ": 2468,
      "èĹ¤": 2469,
      "éľį": 2470,
      "Ġ4": 2471,
      "å¥ī": 2472,
      "ess": 2473,
      "çĤ¸": 2474,
      "ĠThe": 2475,
      "åıĸå¾Ĺ": 2476,
      "æ³ķéĻ¢": 2477,
      "åŃ©": 2478,
      "èĴĻåı¤": 2479,
      "éĲµéģĵ": 2480,
      "æł¡åıĭ": 2481,
      "éĩįæĸ°": 2482,
      "æĪ´": 2483,
      "ip": 2484,
      "æĽ¹": 2485,
      "æĻĤä»£": 2486,
      "ç©¿": 2487,
      "æ®ĸ": 2488,
      "è£ģ": 2489,
      "åĩºçİ°": 2490,
      "çĳª": 2491,
      "æ¦ľ": 2492,
      "ä¸½": 2493,
      "çıł": 2494,
      "çī¹åĪ¥": 2495,
      "è®¡åĪĴ": 2496,
      "åıĤåĬł": 2497,
      "çĶŁå¹³": 2498,
      "æĽ¿": 2499,
      "å¦¹": 2500,
      "ç´°": 2501,
      "è¯Ńè¨Ģ": 2502,
      "ä¸»ä»»": 2503,
      "è¾Ľ": 2504,
      "çĶ¨çļĦ": 2505,
      "55": 2506,
      "å·²ç»ı": 2507,
      "æħ¶": 2508,
      "åŃĻ": 2509,
      "å·²ç¶ĵ": 2510,
      "èĻİ": 2511,
      "éĢļéģİ": 2512,
      "ä¸Ģèµ·": 2513,
      "eb": 2514,
      "38": 2515,
      "Ġ2": 2516,
      "åĨµ": 2517,
      "èģ¯åĲĪ": 2518,
      "æĿ±äº¬": 2519,
      "åį±": 2520,
      "æĢ§çļĦ": 2521,
      "ä¸Ńæĸĩ": 2522,
      "æįķ": 2523,
      "æľŁéĹ´": 2524,
      "éĢ±": 2525,
      "è©©": 2526,
      "é²ľ": 2527,
      "èĥľ": 2528,
      ":ãĢĬ": 2529,
      "ç½Ĺæĸ¯": 2530,
      "åħ±åĲĮ": 2531,
      "æ±½": 2532,
      "æĶĿ": 2533,
      "éĳ": 2534,
      "è¼ª": 2535,
      "æ¼Ķåĩº": 2536,
      "éĩĬ": 2537,
      "é±¼": 2538,
      "èĤī": 2539,
      "æ´»åĬ¨": 2540,
      "éģ¸èĪī": 2541,
      "æ±ł": 2542,
      "å±¬æĸ¼": 2543,
      "é©»": 2544,
      "æĸ°çļĦ": 2545,
      "éį": 2546,
      "éª¨": 2547,
      "éģĭåĭķåĵ¡": 2548,
      "ä½Ķ": 2549,
      "èĪīè¡Į": 2550,
      "æŀĲ": 2551,
      "å¢¨": 2552,
      "èĬ¬": 2553,
      "æĿ°": 2554,
      "ãĢİ": 2555,
      "SA": 2556,
      "ç·´": 2557,
      "æ³½": 2558,
      "è£Ķ": 2559,
      "ãĢı": 2560,
      "å¸Ŀåľĭ": 2561,
      "åıĥèĪĩ": 2562,
      "æĢ»ç»Ł": 2563,
      "ä¹ł": 2564,
      "é¢Ĩå¯¼": 2565,
      "éĹ»": 2566,
      "æŃĲæ´²": 2567,
      "ĠIn": 2568,
      "æ¸¡": 2569,
      "åıĤè§ģ": 2570,
      "èĹ¥": 2571,
      "te": 2572,
      "å®¶æĹı": 2573,
      "å¾¡": 2574,
      "æ¥Ĭ": 2575,
      "æģĴ": 2576,
      "æ³Ľ": 2577,
      "2002": 2578,
      "ak": 2579,
      "å½Ĵ": 2580,
      "è¥¿çıŃ": 2581,
      "æ¹¾": 2582,
      "æ±ºå®ļ": 2583,
      "æĸŃ": 2584,
      "éģ¿": 2585,
      "æŃ»äº¡": 2586,
      "if": 2587,
      "è¥¿çıŃçīĻ": 2588,
      "å¹´åº¦": 2589,
      "éĿ¢ç©į": 2590,
      "æĿ¨": 2591,
      "åħ¨çĲĥ": 2592,
      "èĩ¨": 2593,
      "åĨ·": 2594,
      "è¿Ļä¸Ģ": 2595,
      "ç¬¬åįģ": 2596,
      "åĬŁèĥ½": 2597,
      "ä¸īå¹´": 2598,
      "ell": 2599,
      "åĮħåĲ«": 2600,
      "å»ł": 2601,
      "æī§": 2602,
      "åħ³ç³»": 2603,
      "è¯Ĩ": 2604,
      "å¤ĸäº¤": 2605,
      "å®Ŀ": 2606,
      "åĨłè»į": 2607,
      "æĺ¯çĶ±": 2608,
      "å®ļçļĦ": 2609,
      "åŁ¹": 2610,
      "è®¸å¤ļ": 2611,
      "åħ±åĴĮåľĭ": 2612,
      "çĹĩ": 2613,
      "75": 2614,
      "é¤ĺ": 2615,
      "è®©": 2616,
      "èĥ½å¤": 2617,
      "å®¶åºŃ": 2618,
      "æ¼ĶåĶ±": 2619,
      "åĪ¶åº¦": 2620,
      "çĲĥåĵ¡": 2621,
      "å¤§å¤ļ": 2622,
      "æ£Ĵ": 2623,
      "æľĢçµĤ": 2624,
      "æŃ¸": 2625,
      "æ¾¤": 2626,
      "æŀĹåĮ¹": 2627,
      "çļĦåľ°": 2628,
      "éłĨ": 2629,
      "åİĭ": 2630,
      "å»ī": 2631,
      "éº»": 2632,
      "åĬłæĭ¿": 2633,
      "å¢ĵ": 2634,
      "éļ¾": 2635,
      "åŃĶ": 2636,
      "ä½ľæĽ²": 2637,
      "è¡£": 2638,
      "æŃ¡": 2639,
      "éļİ": 2640,
      "çĶ³": 2641,
      "çĸĳ": 2642,
      "éģº": 2643,
      "éĢ²åħ¥": 2644,
      "è²¡": 2645,
      "æ¯Ķè³½": 2646,
      "è¹": 2647,
      "å®ľ": 2648,
      "64": 2649,
      "éĪ": 2650,
      "ec": 2651,
      "ä½ľçĶ¨": 2652,
      "åŁºçĿ£": 2653,
      "ä½©": 2654,
      "èĳ£": 2655,
      "å°¼äºļ": 2656,
      "è´¥": 2657,
      "åĩºçļĦ": 2658,
      "å¤ªå¹³": 2659,
      "ä¸¤ä¸ª": 2660,
      "åĬª": 2661,
      "æļĹ": 2662,
      "95": 2663,
      "æľīéĻĲåħ¬åı¸": 2664,
      "æį·": 2665,
      "å·¥ä¸ļ": 2666,
      "ä¹¦è®°": 2667,
      "å½©": 2668,
      "ãĢįãĢģ": 2669,
      ")(": 2670,
      "çĢ": 2671,
      "åĲ´": 2672,
      "èĹĿè¡ĵ": 2673,
      "åĬ¿": 2674,
      "æĵģæľī": 2675,
      "æŀĹåĮ¹åħĭ": 2676,
      "åĳ³": 2677,
      "Ð¾": 2678,
      "é¢Ħ": 2679,
      "æĹ©æľŁ": 2680,
      "å±ŀäºİ": 2681,
      "ä¸ĭçļĦ": 2682,
      "éĺ¿æĭī": 2683,
      "éľĩ": 2684,
      "33": 2685,
      "ine": 2686,
      "æĸ¯åĿ¦": 2687,
      "Ġ,": 2688,
      "æĭħä»»": 2689,
      "çļĦæĥħ": 2690,
      "ä¸¥": 2691,
      "ä¿Ĺ": 2692,
      "ard": 2693,
      "è¯Ĺ": 2694,
      "ud": 2695,
      "å´ĩ": 2696,
      "åħ±äº§åħļ": 2697,
      "ä»Ļ": 2698,
      "åĪĨåĪ¥": 2699,
      "ä½įç½®": 2700,
      "å¶": 2701,
      "æĸ¹åĲĳ": 2702,
      "å¥Ĺ": 2703,
      "äº®": 2704,
      "ãĢĤãĢį": 2705,
      "åı¶": 2706,
      "åħ¬åħ±": 2707,
      "çĶĺ": 2708,
      "ill": 2709,
      "è¿Ľåħ¥": 2710,
      "æµĻ": 2711,
      "èīºæľ¯": 2712,
      "çį¨ç«ĭ": 2713,
      "çĽ´åĪ°": 2714,
      "ä¸¦ä¸Ķ": 2715,
      "å°Ĭ": 2716,
      "æ¶ī": 2717,
      "è¯·": 2718,
      "æıĽ": 2719,
      "å¤©æĸĩ": 2720,
      "Ð°": 2721,
      "è¿İ": 2722,
      "éº¦": 2723,
      "å¸ĿåĽ½": 2724,
      "ae": 2725,
      "çĶ¨äºİ": 2726,
      "ob": 2727,
      "èĢĮä¸Ķ": 2728,
      "ç¾İåħĥ": 2729,
      "æĪĲçļĦ": 2730,
      "åľ°çĲĥ": 2731,
      "65": 2732,
      "å±ħæ°ĳ": 2733,
      "èİİ": 2734,
      "æĶ¿æ²»äººçī©": 2735,
      "æ¨¡å¼ı": 2736,
      "éļª": 2737,
      "The": 2738,
      "ãģ®": 2739,
      "åĦĢ": 2740,
      "å¤§éĻ¸": 2741,
      "çĭ¬ç«ĭ": 2742,
      "å°įæĸ¼": 2743,
      "ä¾§": 2744,
      "èĮ¨": 2745,
      "éļĶ": 2746,
      "æ¬§æ´²": 2747,
      "æĶ¹éĿ©": 2748,
      "çİĭæľĿ": 2749,
      "èĹį": 2750,
      "ä¹¾": 2751,
      "åľ°çļĦ": 2752,
      "98": 2753,
      "åĢĭäºº": 2754,
      "åľ°çĲĨ": 2755,
      "å¾Īå¤ļ": 2756,
      "åĲİæĿ¥": 2757,
      "åģ¶": 2758,
      "è¥¿åĮĹ": 2759,
      "å¤ªç©º": 2760,
      "ç¬¬ä¸Ģæ¬¡": 2761,
      "47": 2762,
      "èŃ°åĵ¡": 2763,
      "1990": 2764,
      "æ±Ĺ": 2765,
      "åĨįæ¬¡": 2766,
      "æĭĽ": 2767,
      "é¢ĳ": 2768,
      "æ¤įçī©": 2769,
      "åĬłæĭ¿å¤§": 2770,
      "é®®": 2771,
      "èĪį": 2772,
      "åĦĦ": 2773,
      "ä½¿å¾Ĺ": 2774,
      "ç§ĳæĬĢ": 2775,
      "åı¸ä»¤": 2776,
      "éĦŃ": 2777,
      "å¤ıåŃ£": 2778,
      "è³¼": 2779,
      "æ¥ļ": 2780,
      "ĠĠĠĠĠĠĠĠ": 2781,
      "åĨĽäºĭ": 2782,
      "èŁ": 2783,
      "èģ¯çĽŁ": 2784,
      "éĺ»": 2785,
      "éĽľ": 2786,
      "ian": 2787,
      "æį¢": 2788,
      "Ġl": 2789,
      "åħĥç´ł": 2790,
      "å¾½": 2791,
      "é»ĺ": 2792,
      "ç»ĵæŀĦ": 2793,
      "éł»": 2794,
      "å¸ĮæľĽ": 2795,
      "éģĵè·¯": 2796,
      "æģĲ": 2797,
      "åĩ±": 2798,
      "èĮ¶": 2799,
      "æĻĭ": 2800,
      "è¼¸": 2801,
      "å¾µ": 2802,
      "çĶ¢çĶŁ": 2803,
      "è·¯ç·ļ": 2804,
      "åĶ¯ä¸Ģ": 2805,
      "ew": 2806,
      "æµģè¡Į": 2807,
      "ity": 2808,
      "ä¸Ģæ¬¡": 2809,
      "ç¢¼": 2810,
      "ä¸įéģİ": 2811,
      "èį¯": 2812,
      "ä»ĺ": 2813,
      "è¶ĬåįĹ": 2814,
      "ç»Ŀ": 2815,
      "ĠCh": 2816,
      "ä¹ĥ": 2817,
      "ç¹ģ": 2818,
      "è´µ": 2819,
      "åľĪ": 2820,
      "èªŀè¨Ģ": 2821,
      "çĸ«": 2822,
      "åģ´": 2823,
      "ä¸įåĲĮçļĦ": 2824,
      "è¿·": 2825,
      "1999": 2826,
      "ä¼¸": 2827,
      "æĭ¥": 2828,
      "å°ıèªª": 2829,
      "æµ¦": 2830,
      "align": 2831,
      "34": 2832,
      "æ´ŀ": 2833,
      "æľºæŀĦ": 2834,
      "è½¦ç«Ļ": 2835,
      "è³ĵ": 2836,
      "åı«": 2837,
      "å¯§": 2838,
      "å¼¹": 2839,
      "æĪª": 2840,
      "åĳĪ": 2841,
      "çĦ¡æ³ķ": 2842,
      "èıľ": 2843,
      "è²´": 2844,
      "éĥŃ": 2845,
      "ra": 2846,
      "éĻ¶": 2847,
      "çĸĨ": 2848,
      "ou": 2849,
      "å¤§éĻĨ": 2850,
      "åįķä½į": 2851,
      "æ¡ĳ": 2852,
      "68": 2853,
      "99": 2854,
      "åĨ¬": 2855,
      "SBN": 2856,
      "é½Ĳ": 2857,
      "èį£": 2858,
      "1998": 2859,
      "åİĤ": 2860,
      "æ¸Ľ": 2861,
      "äº¿": 2862,
      "èĭıèģĶ": 2863,
      "æľĢç»Ī": 2864,
      "åĩ½": 2865,
      "åģı": 2866,
      "æľįåĬ¡": 2867,
      "Ġ/": 2868,
      "æľĪåı°": 2869,
      "å»ºè®¾": 2870,
      "çĶŁäº§": 2871,
      "åį¢": 2872,
      "åĨ³å®ļ": 2873,
      "èĽĭ": 2874,
      "åıĥåĬł": 2875,
      "ä¸Ģå¹´": 2876,
      "all": 2877,
      "æĿĤ": 2878,
      "æİĮ": 2879,
      "ç¬¬äºĶ": 2880,
      "è¾ĳ": 2881,
      "æ¼¸": 2882,
      "ä¿Ħç¾ħæĸ¯": 2883,
      "è¯ĳ": 2884,
      "èĥĮæĻ¯": 2885,
      "å¹´åĩºçĶŁ": 2886,
      "å¹»": 2887,
      "å°¼äºŀ": 2888,
      "è£ľ": 2889,
      "æĪĪ": 2890,
      "å»¢": 2891,
      "åĪ©äºŀ": 2892,
      "æĦıå¤§åĪ©": 2893,
      "æµ·è»į": 2894,
      "åİŁåĽł": 2895,
      "åı¥": 2896,
      "ind": 2897,
      "ä¼Ĳ": 2898,
      "Ġst": 2899,
      "æ¶²": 2900,
      "ç¤¼": 2901,
      "Ġ5": 2902,
      "Ġn": 2903,
      "æģ¢": 2904,
      "å¼Ģåıĳ": 2905,
      "å¼Ĥ": 2906,
      "é§Ĳ": 2907,
      "éģ·": 2908,
      "çļĦæĸ°": 2909,
      "å¾Ĺä¸»": 2910,
      "è¸": 2911,
      "åħ±æľī": 2912,
      "è¾ĵ": 2913,
      "çļĦåĲį": 2914,
      "åıĥèĢĥæĸĩçį»": 2915,
      "æľĢå¤§": 2916,
      "éĽ»è¦ĸåı°": 2917,
      "åŃ¦çĶŁ": 2918,
      "ç¾ħé¦¬": 2919,
      "Ġa": 2920,
      "ç§ĳåŃ¸": 2921,
      "åĲįä¸º": 2922,
      "åı°åĮĹ": 2923,
      "é«ĺéĢŁ": 2924,
      "è»Ł": 2925,
      "è±ª": 2926,
      "æĬĢè¡ĵ": 2927,
      "åıĪåĲį": 2928,
      "è¿ĲåĬ¨åĳĺ": 2929,
      "ä¼ĺ": 2930,
      "åĢĴ": 2931,
      "çµ²": 2932,
      "çļĦä¸»": 2933,
      "åĩºçīĪç¤¾": 2934,
      "ãĥ³": 2935,
      "æī©": 2936,
      "éļľ": 2937,
      "æ¯«": 2938,
      "æııè¿°": 2939,
      "Ġ197": 2940,
      "æĻī": 2941,
      "çķ¢": 2942,
      "art": 2943,
      "åĬ³": 2944,
      "åħ¬åľĴ": 2945,
      "åŃĲçļĦ": 2946,
      "æĢĿæĥ³": 2947,
      "èµµ": 2948,
      "äº«": 2949,
      "è¿ģ": 2950,
      "èħ¦": 2951,
      "éĽĨåĽ¢": 2952,
      "æĪĸèĢħ": 2953,
      "æĪĲåĳĺ": 2954,
      "è¿Ļç§į": 2955,
      "åĭŀ": 2956,
      "å¤¢": 2957,
      "æİ¨åĩº": 2958,
      "ä¹Ļ": 2959,
      "ç¥Ń": 2960,
      "æĺŃåĴĮ": 2961,
      "ç¿¼": 2962,
      "è²¨": 2963,
      "é¤Ĭ": 2964,
      "ä¾Ĩèĩª": 2965,
      "32": 2966,
      "çŃīäºº": 2967,
      "%,": 2968,
      "ä¿¡æģ¯": 2969,
      "çĽ¸åĲĮ": 2970,
      "ok": 2971,
      "1997": 2972,
      "67": 2973,
      "äºŀæ´²": 2974,
      "est": 2975,
      "éĬ·": 2976,
      "é«ĺåº¦": 2977,
      "ä»įçĦ¶": 2978,
      "éĽ»è¦ĸåĬĩ": 2979,
      "å¹¼": 2980,
      "è£Ĥ": 2981,
      "%ãĢĤ": 2982,
      "åľĵ": 2983,
      "ä½µ": 2984,
      "çĳŁ": 2985,
      "å²¡": 2986,
      "è¨»": 2987,
      "ç´Ĳ": 2988,
      "åĪĹè»Ĭ": 2989,
      "II": 2990,
      "èªĮ": 2991,
      "æķ°æį®": 2992,
      "ãĢįãĢģãĢĮ": 2993,
      "éĩĮæĸ¯": 2994,
      "åľ¨æŃ¤": 2995,
      "und": 2996,
      "ran": 2997,
      "å¹´éĢĿä¸ĸ": 2998,
      "åħ©åĢĭ": 2999,
      "è·¨": 3000,
      "è½¯": 3001,
      "è¨ĪåĬĥ": 3002,
      "ä¸ĺ": 3003,
      "éĽ¶": 3004,
      "åĽĽå·Ŀ": 3005,
      "ç½Ĺé©¬": 3006,
      "å®¿": 3007,
      "éĺ¶": 3008,
      "æĮ¯": 3009,
      "è¦º": 3010,
      "88": 3011,
      "æª¢": 3012,
      "ç¡¬": 3013,
      "æµª": 3014,
      "ç»ľ": 3015,
      "æķı": 3016,
      "ĠY": 3017,
      "ĠâĢĵ": 3018,
      "æĸ°èģŀ": 3019,
      "çĽ¸åħ³": 3020,
      "æŃ¦åĻ¨": 3021,
      "ä¸ŃåĽ½äººæ°ĳ": 3022,
      "éģĭåĭķæľĥ": 3023,
      "åĤ³çµ±": 3024,
      "éı¡": 3025,
      "å¤§éĥ¨åĪĨ": 3026,
      "éĦ°": 3027,
      "äº§çĶŁ": 3028,
      "æľĿé²ľ": 3029,
      "ä¿Ħç½Ĺæĸ¯": 3030,
      "ĠAn": 3031,
      "46": 3032,
      "ç¶²ç«Ļ": 3033,
      "é¡º": 3034,
      "è»Į": 3035,
      "æ¡ĥ": 3036,
      "ä¼´": 3037,
      "è¥¿åįĹ": 3038,
      "è¨ĵ": 3039,
      "åĽ½çİĭ": 3040,
      "ç¬¬äºĮæ¬¡": 3041,
      "è¨İ": 3042,
      "Ġ19": 3043,
      "æĮĩåĩº": 3044,
      "Ġ\"": 3045,
      "çµĲæĿŁ": 3046,
      "å¯©": 3047,
      "ff": 3048,
      "å¥ª": 3049,
      "éĲĺ": 3050,
      "æµĻæ±Ł": 3051,
      "Ġ=": 3052,
      ",âĢľ": 3053,
      "Ġto": 3054,
      "é¢Ĺ": 3055,
      "éĻ·": 3056,
      "åĪĨæŀĲ": 3057,
      "äººå£«": 3058,
      "äºĮä¸ĸ": 3059,
      "ç¶«": 3060,
      "äºĤ": 3061,
      "æĭĴ": 3062,
      "éĥ¨éķ¿": 3063,
      "å°İèĩ´": 3064,
      "æĤ£": 3065,
      "ä¸īåįģ": 3066,
      "åĭĩ": 3067,
      "äººé¡ŀ": 3068,
      "åİ»ä¸ĸ": 3069,
      "é¼ĵ": 3070,
      "æ»ħ": 3071,
      "è¥¿äºļ": 3072,
      "âĢĿ(": 3073,
      "èĶ¡": 3074,
      "æīİ": 3075,
      "æ©Łåł´": 3076,
      "åįļå£«": 3077,
      "è¨ª": 3078,
      "è®¡ç®Ĺ": 3079,
      "ä¸ŃåŃ¦": 3080,
      "æ¼«çķ«": 3081,
      "æ®Ĭ": 3082,
      "çĻĤ": 3083,
      "åħ¨éĥ¨": 3084,
      "è½®": 3085,
      "39": 3086,
      "éĸĭçĻ¼": 3087,
      "åľĺé«Ķ": 3088,
      "éĻ£": 3089,
      "Ġv": 3090,
      "ç«ĭæ³ķ": 3091,
      "æ¢°": 3092,
      "èĭ±æĸĩ": 3093,
      "åħ¨åľĭ": 3094,
      "å°½": 3095,
      "up": 3096,
      "éģ©": 3097,
      "éĶĢ": 3098,
      "å¥´": 3099,
      "æ²Ī": 3100,
      "é¬¼": 3101,
      "æİĴåĲį": 3102,
      "äº¨": 3103,
      "58": 3104,
      "çĶµåŃĲ": 3105,
      "æĸĩçī©": 3106,
      "ä¸Ģä¸ĸ": 3107,
      "ä»¥ä¸Ĭ": 3108,
      "ä½ĽæķĻ": 3109,
      "ev": 3110,
      "éĽ»åŃĲ": 3111,
      "æľĢæĹ©": 3112,
      "åŃĿ": 3113,
      "ç°½": 3114,
      "ep": 3115,
      "æŁ¯": 3116,
      "èĩºåĮĹ": 3117,
      "å·ŀå¸Ĥ": 3118,
      "è¬Ľ": 3119,
      "éĿĴå¹´": 3120,
      "æľĢåĲİ": 3121,
      "åĨ²": 3122,
      "çİĽ": 3123,
      "çģµ": 3124,
      "ç²ī": 3125,
      "éĢŁåº¦": 3126,
      "å¼±": 3127,
      "1980": 3128,
      "èĢħçļĦ": 3129,
      "44": 3130,
      "ç«¶": 3131,
      "è¥¿éĥ¨": 3132,
      "è´¢": 3133,
      "æĥ¡": 3134,
      "ä¼į": 3135,
      "å¤©ä¸»æķĻ": 3136,
      "æĻ®éĢļ": 3137,
      "æĮ¥": 3138,
      "ib": 3139,
      "å®¡": 3140,
      "è½¨": 3141,
      "ç´«": 3142,
      "ç£ģ": 3143,
      "åĴĮå¹³": 3144,
      "æĢª": 3145,
      "å½¼": 3146,
      "åĪĨåŃĲ": 3147,
      "ä¸»è§Ĵ": 3148,
      "å¹¸": 3149,
      "ä¼¤": 3150,
      "è«ĩ": 3151,
      "çµĲæŀľ": 3152,
      "è«¸": 3153,
      "åĢŁ": 3154,
      "æ£Ģ": 3155,
      "âĶĢ": 3156,
      "å§Ĳ": 3157,
      "åĪ©äºļ": 3158,
      "çĸ¾": 3159,
      "éħįéŁ³": 3160,
      "èĭ±æł¼": 3161,
      "å´İ": 3162,
      "é¥°": 3163,
      "ge": 3164,
      "èª²": 3165,
      "çº½": 3166,
      "çİ°ä»£": 3167,
      "1996": 3168,
      "åľŁåľ°": 3169,
      "âĨ": 3170,
      "çĹħæ¯Ĵ": 3171,
      "æľĥèŃ°": 3172,
      ");": 3173,
      "èĵĭ": 3174,
      "åľĭç«ĭ": 3175,
      "å¹´åľ¨": 3176,
      "æĵ´": 3177,
      "è¡¨æ¼Ķ": 3178,
      "åĽĽå¹´": 3179,
      "è§£æĶ¾åĨĽ": 3180,
      "ä¼°": 3181,
      "æ©Łæ§ĭ": 3182,
      "çı¾ä»£": 3183,
      "æľīçļĦ": 3184,
      "æĴŃåĩº": 3185,
      "Ġ7": 3186,
      "æ¯ķ": 3187,
      "ç¦ıå»º": 3188,
      "åħ»": 3189,
      "è¯¸": 3190,
      "æłĳ": 3191,
      "è¡Ŀ": 3192,
      "æķµ": 3193,
      "çĽĸ": 3194,
      "åĪĨåĪ«": 3195,
      "åĽ°": 3196,
      "æĺ¯ä¸Ģä¸ª": 3197,
      "çŃ¾": 3198,
      "æĭīæĸ¯": 3199,
      "çĩķ": 3200,
      "èĳĹåĲį": 3201,
      "è»įäºĭ": 3202,
      "çļĦä¸»è¦ģ": 3203,
      "ä¸°": 3204,
      "æ°§åĮĸ": 3205,
      "åĲ¯": 3206,
      "åİħ": 3207,
      "é°": 3208,
      "éī": 3209,
      "æĹ¥åľ¨": 3210,
      "æ°ĳåĽ½": 3211,
      "åŁĶ": 3212,
      "çĲĨè®º": 3213,
      "è¡¡": 3214,
      "çĨĻ": 3215,
      "åħģ": 3216,
      "sp": 3217,
      "æ¯ĶèµĽ": 3218,
      "çĩĥ": 3219,
      "1900": 3220,
      "äººåĵ¡": 3221,
      "æĨ²": 3222,
      "ik": 3223,
      "åıįåºĶ": 3224,
      "å¯¼èĩ´": 3225,
      "çī§": 3226,
      "è¡Įåĭķ": 3227,
      "æĶ»æĵĬ": 3228,
      "Ġ0": 3229,
      "åħ¬åħĥ": 3230,
      "æ»ĳ": 3231,
      "å°İæ¼Ķ": 3232,
      "ä¿ĥ": 3233,
      "é¨İ": 3234,
      "æľĢå¤§çļĦ": 3235,
      "ç¢ĳ": 3236,
      "èĮ²": 3237,
      "é¡¶": 3238,
      "èĻ½": 3239,
      "æľīéĹľ": 3240,
      "ive": 3241,
      "åĬį": 3242,
      "å¼ķèµ·": 3243,
      "åħ¹": 3244,
      "åĽ½æ°ĳ": 3245,
      "æŃ¤ç«Ļ": 3246,
      "é³¥": 3247,
      "æľĢåĪĿ": 3248,
      "1949": 3249,
      "éģį": 3250,
      "Ġé£¾": 3251,
      "çĺ": 3252,
      "ens": 3253,
      "ä¾ĨçļĦ": 3254,
      "ç¶ł": 3255,
      "ack": 3256,
      "ex": 3257,
      "æ²³åįĹ": 3258,
      "è¶ħéģİ": 3259,
      "æĹģ": 3260,
      "çıį": 3261,
      "çĪ¶è¦ª": 3262,
      "å¤ļçļĦ": 3263,
      "ä¸ºäºĨ": 3264,
      "è´Łè´£": 3265,
      "ang": 3266,
      "èģĶéĤ¦": 3267,
      "77": 3268,
      "å£ģ": 3269,
      "èĳ¬": 3270,
      "è¡ĮçļĦ": 3271,
      "åħ§å®¹": 3272,
      "éŀ": 3273,
      "1995": 3274,
      "æ²ī": 3275,
      "Ġ:": 3276,
      "qu": 3277,
      "è¦Ĩ": 3278,
      "é«ĺçŃī": 3279,
      "åĲĥ": 3280,
      "è¾½": 3281,
      "ä¸Ńå±±": 3282,
      "éĥ¨ä»½": 3283,
      "åĢį": 3284,
      "æķ¬": 3285,
      "é´": 3286,
      "å¹«": 3287,
      "èħ³": 3288,
      "ä»°": 3289,
      "çĶŁçĶ¢": 3290,
      "éłĤ": 3291,
      "èĦ±": 3292,
      "1994": 3293,
      "æµ·å³": 3294,
      "62": 3295,
      "åŃŁ": 3296,
      "çŀ": 3297,
      "åĭķçī©": 3298,
      "ä»Ķ": 3299,
      "çļĦçī¹": 3300,
      "åĬ¨çī©": 3301,
      "åħ³äºİ": 3302,
      "åĹ": 3303,
      "èĳ¡": 3304,
      "è½»": 3305,
      "éĢĻç¨®": 3306,
      "è¥²": 3307,
      "æ¦Ĥå¿µ": 3308,
      "èĩ³ä»Ĭ": 3309,
      "æ¾³éĸĢ": 3310,
      "ç´ĢéĮĦ": 3311,
      "85": 3312,
      "æ³Ĭ": 3313,
      "1950": 3314,
      "IN": 3315,
      "äºĶå¹´": 3316,
      "ç¥¥": 3317,
      "æĭ¥æľī": 3318,
      "æħĪ": 3319,
      "åıĽ": 3320,
      "ä¼Ĭæĸ¯": 3321,
      "æµ·åĨĽ": 3322,
      "åıĥè¦ĭ": 3323,
      "Â°": 3324,
      "åĮĸåŃ¦": 3325,
      "è®²": 3326,
      "åĩı": 3327,
      "ç²¾ç¥ŀ": 3328,
      "éĢıéģİ": 3329,
      "é½Ĭ": 3330,
      "å»ºéĢł": 3331,
      "ãĢĤ(": 3332,
      "å¾ĳ": 3333,
      "è¬Ŀ": 3334,
      "ç»ĦæĪĲ": 3335,
      "è¨Ĥ": 3336,
      "æŁ±": 3337,
      "1992": 3338,
      "ä½Ĩåľ¨": 3339,
      "'s": 3340,
      "æłĩåĩĨ": 3341,
      "ç¹¼çºĮ": 3342,
      "åĸ®ä½į": 3343,
      "æĪĢ": 3344,
      "ä¸ŃåŃ¸": 3345,
      "Ġ&": 3346,
      "ĊĠĊ": 3347,
      "æ¹ĸåįĹ": 3348,
      "æ¶¯": 3349,
      "æ²³æµģ": 3350,
      "è¿ĩç¨ĭ": 3351,
      "å®ĥçļĦ": 3352,
      "åĨĽéĺŁ": 3353,
      "éĤĢ": 3354,
      "åĿĲæłĩ": 3355,
      "åĩ¡": 3356,
      "enter": 3357,
      "éĩįè¦ģçļĦ": 3358,
      "æľºè½¦": 3359,
      "âĢĿãĢģ": 3360,
      "åħĦå¼Ł": 3361,
      "å¨ģå»ī": 3362,
      "èĶ£": 3363,
      "ç¾İæ´²": 3364,
      "é¡¹çĽ®": 3365,
      "åĪĢ": 3366,
      "è¶Ļ": 3367,
      "èĭĹ": 3368,
      "æħķ": 3369,
      "çłĶç©¶æīĢ": 3370,
      "ite": 3371,
      "åŁºåľ°": 3372,
      "49": 3373,
      "èŃ¦å¯Ł": 3374,
      "éłĴ": 3375,
      "å·¦åı³": 3376,
      "éĥ¨éĺŁ": 3377,
      "å®ª": 3378,
      "Ġ196": 3379,
      "åĪĹè½¦": 3380,
      "é¡ĺ": 3381,
      "æµ·æĭĶ": 3382,
      "ä¾į": 3383,
      "Ġç¬¬": 3384,
      "1993": 3385,
      "Ġå¤§": 3386,
      "ith": 3387,
      "ä¹Ķ": 3388,
      "èĳĹä½ľ": 3389,
      "åĸ¬": 3390,
      "æĴĴ": 3391,
      "HD": 3392,
      "åĿļ": 3393,
      "ĠĠĠ": 3394,
      "éĻ°": 3395,
      "ä¸įå°ĳ": 3396,
      "å¹£": 3397,
      "è¥¿äºŀ": 3398,
      "Ð¾Ð": 3399,
      "87": 3400,
      "ç¨ĭåºı": 3401,
      "å¤©æ´¥": 3402,
      "å·¥æ¥Ń": 3403,
      "çĽ¸çķ¶": 3404,
      "åįģåĪĨ": 3405,
      "ä¿±": 3406,
      "TV": 3407,
      "åĬĽéĩı": 3408,
      "åĸ®æĽ²": 3409,
      "å°ĳå¹´": 3410,
      "å±ħä½ı": 3411,
      "åĬłåĿ¡": 3412,
      "åħĥå¹´": 3413,
      "äººåĳĺ": 3414,
      "çŁ¿": 3415,
      "åĪ¶ä½ľ": 3416,
      "åį´": 3417,
      "æĺĤ": 3418,
      "æĬĺ": 3419,
      "äº¤æµģ": 3420,
      "æĸĩåŃ¸": 3421,
      "çı¾åľ¨": 3422,
      "Ġ|": 3423,
      "ç³ĸ": 3424,
      "æĻ¶": 3425,
      "å¤ļæ¬¡": 3426,
      "æĴŀ": 3427,
      "å½Ń": 3428,
      "çŃĶ": 3429,
      "èģ½": 3430,
      "é¡§": 3431,
      "ç½ĳç»ľ": 3432,
      "66": 3433,
      "è®¿": 3434,
      "çģ°": 3435,
      "çļĦä¸ĢåĢĭ": 3436,
      "åıĬåħ¶": 3437,
      "éĻĲåĪ¶": 3438,
      "å¤§èĩ£": 3439,
      "å¦®": 3440,
      "éĽĨåľĺ": 3441,
      "57": 3442,
      "æĸĩåŃĹ": 3443,
      "æģĴæĺŁ": 3444,
      "1945": 3445,
      "å»£æĴŃ": 3446,
      "æĳĦ": 3447,
      "è¡ĮçĤº": 3448,
      "tw": 3449,
      "æı®": 3450,
      "ass": 3451,
      "æĹ¶ä»£": 3452,
      "æ·¡": 3453,
      "æĲŃ": 3454,
      "å¯¹äºİ": 3455,
      "59": 3456,
      "éĩĩçĶ¨": 3457,
      "2023": 3458,
      "å¹¶ä¸Ķ": 3459,
      "åıĸä»£": 3460,
      "æĿ¥èĩª": 3461,
      "Ġh": 3462,
      "çķª": 3463,
      "ial": 3464,
      "è´§": 3465,
      "çİ¯å¢ĥ": 3466,
      "éļ¸": 3467,
      "èīĺ": 3468,
      "ç¸¾": 3469,
      "çĽ¤": 3470,
      "åŁºç¡": 3471,
      "éģŃåĪ°": 3472,
      "å¥¹çļĦ": 3473,
      "æ¯ıå¹´": 3474,
      "é¹¿": 3475,
      "å¤§ä¼ļ": 3476,
      "åİļ": 3477,
      "Ġ10": 3478,
      "å¹ħ": 3479,
      "èĳĽ": 3480,
      "our": 3481,
      "è¿ĺæľī": 3482,
      "ä¸įä¹ħ": 3483,
      "æľĭ": 3484,
      "å°ıç»Ħ": 3485,
      "èº«ä»½": 3486,
      "æĸ°åĬłåĿ¡": 3487,
      "ç§Ł": 3488,
      "äºĮå¹´": 3489,
      "å¤ªéĻ½": 3490,
      "æ®ĸæ°ĳ": 3491,
      "åĳ½åĲį": 3492,
      "å¿ħéłĪ": 3493,
      "ä¼łç»Ł": 3494,
      "çĤİ": 3495,
      "èŃ°æľĥ": 3496,
      "æ¨Ļæºĸ": 3497,
      "è¡ĮæĶ¿åĮº": 3498,
      "âĨĴ": 3499,
      "éģ£": 3500,
      "è¿ħ": 3501,
      "æĸ¯ç§ĳ": 3502,
      "Ġfor": 3503,
      "é¯": 3504,
      "å®Ļ": 3505,
      "å¹¿ä¸ľ": 3506,
      "çĻ¼è¡¨": 3507,
      "åİŁæľ¬": 3508,
      "åĬłä¸Ĭ": 3509,
      "æĽĨ": 3510,
      "å®¾": 3511,
      "ä¹±": 3512,
      "ä¸¦åľ¨": 3513,
      "åŁºç¡Ģ": 3514,
      "æĺŁçŃī": 3515,
      "ç´Ģå¿µ": 3516,
      "ç®Ń": 3517,
      "ry": 3518,
      "è¥¿æĸ¹": 3519,
      "ä¼ı": 3520,
      "æĺĨ": 3521,
      "ä¸ĢåĲį": 3522,
      "æĪ°é¬¥": 3523,
      "ä»ª": 3524,
      "ä¸įåı¯": 3525,
      "ä¼ģä¸ļ": 3526,
      "å»Ł": 3527,
      "æĩ·": 3528,
      "åīµä½ľ": 3529,
      "å·´é»İ": 3530,
      "ç¬¬åħŃ": 3531,
      "å¼ĺ": 3532,
      "1991": 3533,
      "ong": 3534,
      "ãĢĤãĢĬ": 3535,
      "éĲµè·¯è»Ĭç«Ļ": 3536,
      "åŁºéĩĳ": 3537,
      "è¡°": 3538,
      "åĩ¯": 3539,
      "åĮĪ": 3540,
      "ä¸ľåĮĹ": 3541,
      "ç»ĵæĿŁ": 3542,
      "é¤Ĳ": 3543,
      "èĻķçĲĨ": 3544,
      "å»¶ä¼¸": 3545,
      "å®ŀéªĮ": 3546,
      "ä¿Ĭ": 3547,
      "çĶŁæ¶¯": 3548,
      "ä¿ĿæĮģ": 3549,
      "æ£ĭ": 3550,
      "éłģ": 3551,
      "å¯Ĩåº¦": 3552,
      "æ©«": 3553,
      "ows": 3554,
      "è°ĭ": 3555,
      "åĮĸçļĦ": 3556,
      "å®ħ": 3557,
      "çĶ¨æĸ¼": 3558,
      "èĬ³": 3559,
      "å¹´å¤ıåŃ£": 3560,
      "ä¹ĭå¤ĸ": 3561,
      "ĠUn": 3562,
      "ç¶ĵéģİ": 3563,
      "Ġ6": 3564,
      "é¦ĸéĥ½": 3565,
      "ä»»åĳ½": 3566,
      "ç®¡è½Ħ": 3567,
      "ç²Ĵ": 3568,
      "æľĿé®®": 3569,
      "é¡į": 3570,
      "ä¸ĢæŃ¥": 3571,
      "Ġåľ¨": 3572,
      "42": 3573,
      "ä¿ĿèŃ·": 3574,
      "åľ°ä½į": 3575,
      "åħ¬ä¸»": 3576,
      "ä¹Ī": 3577,
      "å¹´èµ·": 3578,
      "ey": 3579,
      "æĪĳä»¬": 3580,
      "èīĩ": 3581,
      "è¡Ĺéģĵ": 3582,
      "è¿ĳåľ°": 3583,
      "çļĦå°ı": 3584,
      "è¤ĩ": 3585,
      "åºŁ": 3586,
      "åĽ½åĬ¡": 3587,
      "ate": 3588,
      "é¡»": 3589,
      "åīĽ": 3590,
      "è¡¥": 3591,
      "io": 3592,
      "çĽĥ": 3593,
      "AR": 3594,
      "éľ¸": 3595,
      "åıĤä¸İ": 3596,
      "æĸĩåŃ¦": 3597,
      "è©²åľĭ": 3598,
      "æ±ºè³½": 3599,
      "è¢ģ": 3600,
      "çĽ§": 3601,
      "å£¤": 3602,
      "éĿ¢çļĦ": 3603,
      "é«ĶèĤ²": 3604,
      "åħ¬å°º": 3605,
      "èİĬ": 3606,
      "åħ¬éĸĭ": 3607,
      ",ãĢĮ": 3608,
      "ast": 3609,
      "æĮĩæĮ¥": 3610,
      "åŀĭçļĦ": 3611,
      "çķ¶åľ°": 3612,
      "åłħ": 3613,
      "åĭ¤": 3614,
      "èĬĿ": 3615,
      "æĽ¾ç¶ĵ": 3616,
      "çµĦæĪĲ": 3617,
      "ä¸ĸçķĮå¤§": 3618,
      "96": 3619,
      "è¨´": 3620,
      "éĮ¢": 3621,
      "å¤ªå¹³æ´ĭ": 3622,
      "å¸ģ": 3623,
      "éĮ¦": 3624,
      "åĩºèº«": 3625,
      "æĸĩä»¶": 3626,
      "æĶ¹çĤº": 3627,
      ";}-": 3628,
      "åľĭçİĭ": 3629,
      "hans": 3630,
      "åıĳå¸ĥ": 3631,
      "éĺ¿å°Ķ": 3632,
      "æĿĲæĸĻ": 3633,
      "åªĴé«Ķ": 3634,
      "43": 3635,
      "åİŁåŃĲ": 3636,
      "åıįå¯¹": 3637,
      "å°ĭ": 3638,
      "åĶ±çīĩ": 3639,
      "éĥ¨éļĬ": 3640,
      "--": 3641,
      "éĿĸ": 3642,
      "çĨŁ": 3643,
      "æĺ¯åĲ¦": 3644,
      "åįļçī©é¦Ĩ": 3645,
      "æĮĳ": 3646,
      "ort": 3647,
      "å¢ĥåĨħ": 3648,
      "åĲĪçī©": 3649,
      "å°ĳå¥³": 3650,
      "ord": 3651,
      "æĹħå®¢": 3652,
      "éĢĤ": 3653,
      "åı¤ä»£": 3654,
      "çĽ®çļĦ": 3655,
      "ary": 3656,
      "å®ĥä»¬": 3657,
      "æ±ĩ": 3658,
      "äºĭåĭĻ": 3659,
      "BS": 3660,
      "56": 3661,
      "man": 3662,
      "æİ¡çĶ¨": 3663,
      "å¾Ħ": 3664,
      "å±±ä¸ľ": 3665,
      "èĢĮåľ¨": 3666,
      "ĠPr": 3667,
      "æĸ°éĹ»": 3668,
      "æħ§": 3669,
      "å¥§æŀĹåĮ¹åħĭ": 3670,
      "åĩºäºĨ": 3671,
      "è¨Īçķ«": 3672,
      "åĬĽçļĦ": 3673,
      "æľīäºĽ": 3674,
      "æĵĩ": 3675,
      "çķ¢æ¥Ń": 3676,
      "ight": 3677,
      "âĢĿãĢģâĢľ": 3678,
      "æ³³": 3679,
      "æıĴ": 3680,
      "çĲĨè«ĸ": 3681,
      "è°¢": 3682,
      "ä¸ªäºº": 3683,
      "NA": 3684,
      "åĿĲæłĩä¸º": 3685,
      "éĥ½æľī": 3686,
      "åįģåħŃ": 3687,
      "çģŃ": 3688,
      "è¼Ķ": 3689,
      "éģİç¨ĭ": 3690,
      "åľĨ": 3691,
      "å°ĩè»į": 3692,
      "St": 3693,
      "èĭ¦": 3694,
      "èĲĦ": 3695,
      "Ġ8": 3696,
      "ä¸ŃåĽ½åħ±äº§åħļ": 3697,
      "çļĩåĲİ": 3698,
      "å¿«éĢŁ": 3699,
      "èª¿æŁ¥": 3700,
      "èĳ¡èĲĦ": 3701,
      "çī¹åĪ«": 3702,
      "éļ¶": 3703,
      "æ¸Ĳ": 3704,
      "çĴ°å¢ĥ": 3705,
      "è¢ĸ": 3706,
      "ä¸ŃåĽ½äººæ°ĳè§£æĶ¾åĨĽ": 3707,
      "CD": 3708,
      "Ġzh": 3709,
      "éĽĨä¸Ń": 3710,
      "çĨĬ": 3711,
      "ç¨ĭåº¦": 3712,
      "èª¤": 3713,
      "ert": 3714,
      "ich": 3715,
      "æĺŁæľŁ": 3716,
      "è¼Ľ": 3717,
      "è·³": 3718,
      "éĥĳ": 3719,
      "è³ŀ": 3720,
      "åįĢåŁŁ": 3721,
      "è´¡": 3722,
      "äººåľ¨": 3723,
      "å½±çīĩ": 3724,
      "æĿ¥çļĦ": 3725,
      "yle": 3726,
      "å·ŀçļĦ": 3727,
      "åĪĿæľŁ": 3728,
      "ä¸Ńåħ±ä¸Ńå¤®": 3729,
      "æħ¢": 3730,
      "èĺĩèģ¯": 3731,
      "1988": 3732,
      "çİ©å®¶": 3733,
      "ç¯Ħåľį": 3734,
      "åī²": 3735,
      "éĴŁ": 3736,
      "æĭĨ": 3737,
      "å°ıæĻĤ": 3738,
      "éĵ¶è¡Į": 3739,
      "çĲĥéļĬ": 3740,
      "åĲĽä¸»": 3741,
      "éĴ±": 3742,
      "Ðµ": 3743,
      "åŁ·è¡Į": 3744,
      "åºĻ": 3745,
      "èµ´": 3746,
      "æĭīåħĭ": 3747,
      "å¤§æ¨ĵ": 3748,
      "HR": 3749,
      "é¢Ŀ": 3750,
      "åĪĨçĤº": 3751,
      "æĭĵ": 3752,
      "ies": 3753,
      "ä¼ģæ¥Ń": 3754,
      "éĻ©": 3755,
      "1989": 3756,
      "éĺħ": 3757,
      ").": 3758,
      "ç¾Ĭ": 3759,
      "ect": 3760,
      "æĭ³": 3761,
      "çºªå¿µ": 3762,
      "éĽķ": 3763,
      "æĲľ": 3764,
      "è·ĳ": 3765,
      "éĺµ": 3766,
      "çĪ²": 3767,
      "åŃĹæ¯į": 3768,
      "ER": 3769,
      "èĻ½çĦ¶": 3770,
      "è¿ĳåľ°å°ıè¡ĮæĺŁ": 3771,
      "éļ¨èĳĹ": 3772,
      "çļĦå¥³": 3773,
      "åıįå°į": 3774,
      "æĬķç¥¨": 3775,
      "çļĦåīį": 3776,
      "å½°": 3777,
      "ç»Ĩèĥŀ": 3778,
      "åįĶæľĥ": 3779,
      "æ¡Ĥ": 3780,
      "è§ĨæĺŁçŃī": 3781,
      "èģ¯è³½": 3782,
      "æ¼Ķåĳĺ": 3783,
      "èĦ«": 3784,
      "TC": 3785,
      "åįģå¹´": 3786,
      "åķĨæ¥Ń": 3787,
      "æŁ³": 3788,
      "èŃ½": 3789,
      "1970": 3790,
      "åįĵ": 3791,
      "éĺ¿æĭīä¼¯": 3792,
      "å¸Ĥåł´": 3793,
      "çĲ³": 3794,
      "è¥¿èĹı": 3795,
      "çµ±æ²»": 3796,
      "æĹ¥èµ·": 3797,
      "çļĦç¬¬ä¸Ģ": 3798,
      "èī²çļĦ": 3799,
      "è®Ń": 3800,
      "è¬Ģ": 3801,
      "å¹¹": 3802,
      "çİĦ": 3803,
      "è·ĿéĽ¢": 3804,
      "èĪīè¾¦": 3805,
      "èĥ½å¤ł": 3806,
      "Ġon": 3807,
      "41": 3808,
      "èŀº": 3809,
      "éĿŀæ´²": 3810,
      "æľºåľº": 3811,
      "çĶ·æĢ§": 3812,
      "åĨħå®¹": 3813,
      "500": 3814,
      "01": 3815,
      "ç»ĥ": 3816,
      "ä¸¾è¡Į": 3817,
      "åŁºçĿ£æķĻ": 3818,
      "åĪĨä¸º": 3819,
      "çĶŁåĳ½": 3820,
      "éĬĢè¡Į": 3821,
      "éģĤ": 3822,
      "èħĬ": 3823,
      "æī¹åĩĨ": 3824,
      "å¯¦éļĽ": 3825,
      "å¥½çļĦ": 3826,
      "86": 3827,
      "ory": 3828,
      "åħ§çļĦ": 3829,
      "æĿ¯": 3830,
      "æĪĳåĢĳ": 3831,
      "ç»ĵæŀľ": 3832,
      "éĥ¨çļĦ": 3833,
      "æļ«": 3834,
      "åıªæĺ¯": 3835,
      "å°ĸ": 3836,
      "åįıä¼ļ": 3837,
      "é«ĺä¸Ń": 3838,
      "ä½ĵèĤ²": 3839,
      "ç§»æ°ĳ": 3840,
      "ä¸Ģä½į": 3841,
      "æĶ¯æı´": 3842,
      "æĸ¯çļĦ": 3843,
      "ä½¿çĶ¨çļĦ": 3844,
      "è£½éĢł": 3845,
      "é¡¯ç¤º": 3846,
      "éŁ¦": 3847,
      "åıĳè¡¨": 3848,
      "å¦ĥ": 3849,
      "æĺ¯ä¸ĢåĢĭ": 3850,
      "ç»Łæ²»": 3851,
      "è³£": 3852,
      "äººæ°ĳåħ±åĴĮåľĭ": 3853,
      "çŃĨ": 3854,
      "æĹ¥èĩ³": 3855,
      "Ġg": 3856,
      "èªī": 3857,
      "ä¸įæľĥ": 3858,
      "ç½ķ": 3859,
      "ç»§ç»Ń": 3860,
      "ä»²": 3861,
      "åľ°ä¸ĭ": 3862,
      "è¿ĶåĽŀ": 3863,
      "89": 3864,
      "å±ı": 3865,
      "èģ·æ¥Ń": 3866,
      "ç´¹": 3867,
      "é©¬æĿ¥": 3868,
      "å¹³åı°": 3869,
      "çİ°åľ¨": 3870,
      "åħ¶å®ĥ": 3871,
      "ç¶±": 3872,
      "BC": 3873,
      "ä¾ĨæºĲ": 3874,
      "æ¯ķä¸ļ": 3875,
      "éĸ£": 3876,
      "è§ĨæĺŁçŃīä¸º": 3877,
      "èģĶçĽŁ": 3878,
      "çŁ¥éģĵ": 3879,
      "åĲįç¨±": 3880,
      "æģĨ": 3881,
      "éĤ®": 3882,
      "ä¼¯çī¹": 3883,
      "å¥ĳ": 3884,
      "èµ¤ç·¯": 3885,
      "æĢĢ": 3886,
      "èµ¤ç¶ĵ": 3887,
      "åĽŀåĪ°": 3888,
      "æ¾³å¤§åĪ©": 3889,
      "SAO": 3890,
      "è¶ħè¿ĩ": 3891,
      "76": 3892,
      "å²³": 3893,
      "ãĢģãĢģ": 3894,
      "å¡ĺ": 3895,
      "hk": 3896,
      "åħ¶B": 3897,
      "å¾ĮçļĦ": 3898,
      "äº¤æĺĵ": 3899,
      "ä¸įåĨį": 3900,
      "è®¾ç«ĭ": 3901,
      "éŁ©åĽ½": 3902,
      "æµ©": 3903,
      "ant": 3904,
      "åŁĥåıĬ": 3905,
      "éĬĢç¶ĵ": 3906,
      "åį¿": 3907,
      "çĤºä¸»": 3908,
      "éĬĢç·¯": 3909,
      "çµĲæ§ĭ": 3910,
      "æŀª": 3911,
      "center": 3912,
      "ä½įäºİéĬĢç¶ĵ": 3913,
      "åĿĲæłĩä¸ºèµ¤ç¶ĵ": 3914,
      "æĸ¹æ¡Ī": 3915,
      "éĢīä¸¾": 3916,
      "éĨ«éĻ¢": 3917,
      "çļĩå®¶": 3918,
      "èĭ±éĽĦ": 3919,
      "å¯¬": 3920,
      "æĺ¯æĮĩ": 3921,
      "å®ı": 3922,
      "å®½": 3923,
      "åĮ»éĻ¢": 3924,
      "äººç±»": 3925,
      "é§Ľ": 3926,
      "åĲĦåľ°": 3927,
      "èĩĺ": 3928,
      "è©¹": 3929,
      "äººå¤§": 3930,
      "ç¶ľ": 3931,
      "èĢĢ": 3932,
      "éĩıçļĦ": 3933,
      "å¹¿æĴŃ": 3934,
      "å£ŀ": 3935,
      "æĪĸæĺ¯": 3936,
      "éĭ¼": 3937,
      "åıĳè¡Į": 3938,
      "å®ĩå®Ļ": 3939,
      "è¶£": 3940,
      "åħ¬æ°ĳ": 3941,
      "é¢ĹæģĴæĺŁ": 3942,
      "éĩĿ": 3943,
      "å±±è¥¿": 3944,
      "çķ¶ä¸Ń": 3945,
      "åıĸæ¶Ī": 3946,
      "ç«ŀ": 3947,
      "1960": 3948,
      "çī¹æ®Ĭ": 3949,
      "æ½ĺ": 3950,
      "è°Ī": 3951,
      "æķĮ": 3952,
      "Ñģ": 3953,
      "åĦĴ": 3954,
      "ç¬¬ä¸ĥ": 3955,
      "æīĢåľ¨": 3956,
      "å°ıè¯´": 3957,
      "åĮºåŁŁ": 3958,
      "çº¦ç¿°": 3959,
      "åħ¬åĽŃ": 3960,
      "è´Ń": 3961,
      "æ¶ħ": 3962,
      "å£½": 3963,
      "å¤«äºº": 3964,
      "æ¯Ģ": 3965,
      "æ¯įè¦ª": 3966,
      "æĽ¾ä»»": 3967,
      "æĿī": 3968,
      "æĿ¥æºĲ": 3969,
      "å¥§æŀĹåĮ¹åħĭéģĭåĭķæľĥ": 3970,
      "éº¼": 3971,
      "è³ĩè¨Ĭ": 3972,
      "æľīæķĪ": 3973,
      "ç§Ĵ": 3974,
      "1985": 3975,
      "ĠæŀĹ": 3976,
      "åĲĮæĦı": 3977,
      "å±¯": 3978,
      "ä¸ĵä¸ļ": 3979,
      "åģľæŃ¢": 3980,
      "åºĶçĶ¨": 3981,
      "æľĭåıĭ": 3982,
      "æł¸å¿ĥ": 3983,
      "Ð¸": 3984,
      "åįĹåĮĹ": 3985,
      "ç½ĳç«Ļ": 3986,
      "é«ĺéĽĦ": 3987,
      "åĶĲæľĿ": 3988,
      "ĠISBN": 3989,
      "å¦»åŃĲ": 3990,
      "78": 3991,
      "Ġr": 3992,
      "åħĪçĶŁ": 3993,
      "age": 3994,
      "Ġal": 3995,
      "æĸ¼æĺ¯": 3996,
      "éģ¸æĵĩ": 3997,
      "Ã©": 3998,
      "è¢Ń": 3999,
      "æİ¥è¿ĳ": 4000,
      "å°ĨåĨĽ": 4001,
      "å°ıåŃ¸": 4002,
      "ain": 4003,
      "åĩºä»»": 4004,
      "indows": 4005,
      "éĵľ": 4006,
      "äººæ°ĳæĶ¿åºľ": 4007,
      "æĵįä½ľ": 4008,
      "åĲ¾": 4009,
      "çĲī": 4010,
      "å¤§åŀĭ": 4011,
      "çĨ±å¸¶": 4012,
      "çīĮå¾Ĺä¸»": 4013,
      "é°Ń": 4014,
      "Ch": 4015,
      "å®ŀéĻħ": 4016,
      "æ¯«ç±³": 4017,
      "æ£Ħ": 4018,
      "äºŃ": 4019,
      "ĠĠĊ": 4020,
      "è³½äºĭ": 4021,
      "omp": 4022,
      "In": 4023,
      "çĽĲ": 4024,
      "\"|": 4025,
      "ĠãĢĤ": 4026,
      "ĠAr": 4027,
      "æŀļ": 4028,
      "54": 4029,
      "ä¸Ģç¨®": 4030,
      "ç¬ĳ": 4031,
      "1987": 4032,
      "è±Ĩ": 4033,
      "ä¸ĩäºº": 4034,
      "ly": 4035,
      "è§Ħæ¨¡": 4036,
      "94": 4037,
      "æĿŃ": 4038,
      "ä¸Ģæ¨£": 4039,
      "ä¿ĿçķĻ": 4040,
      "53": 4041,
      "çĵľ": 4042,
      "iz": 4043,
      "éĶ¡": 4044,
      "è·¯æĺĵ": 4045,
      "åľ³": 4046,
      "éĿľ": 4047,
      "IC": 4048,
      "åįĹæĸ¹": 4049,
      "è§ī": 4050,
      "ĠĊĠĊĠĊĠĊ": 4051,
      "ç»ıè¿ĩ": 4052,
      "æº¶": 4053,
      "éĽ¢éĸĭ": 4054,
      "åªĴä½ĵ": 4055,
      "åīįçļĦ": 4056,
      "æ¯ģ": 4057,
      "ç·Ĭ": 4058,
      "ãĤ¹": 4059,
      "åı°æ¹¾": 4060,
      "éĩĳèŀį": 4061,
      "02": 4062,
      "ç¢³": 4063,
      "è²ĵ": 4064,
      "éļ§": 4065,
      "è²·": 4066,
      "è¨Ńç«ĭ": 4067,
      "èĬĤçĽ®": 4068,
      "æµ®": 4069,
      "æİī": 4070,
      "é³³": 4071,
      "çļĦäººåı£": 4072,
      "å¤ĦçĲĨ": 4073,
      "åĽ½åĬ¡éĻ¢": 4074,
      "hy": 4075,
      "åħ¶å¾Į": 4076,
      "çĹĽ": 4077,
      "æµ·å³¡": 4078,
      "èĳ£äºĭ": 4079,
      "èĳĹåĲįçļĦ": 4080,
      "è´¸": 4081,
      "ivers": 4082,
      "éļıåĲİ": 4083,
      "ä¸ŃåĽ½å¤§éĻĨ": 4084,
      "æ«": 4085,
      "(,),": 4086,
      "éĤĦæľī": 4087,
      "èµŀ": 4088,
      "1986": 4089,
      "ç´Ħç¿°": 4090,
      "åŃ¸èĢħ": 4091,
      "çĬ¹": 4092,
      "93": 4093,
      "å®ļä¹ī": 4094,
      "è³¢": 4095,
      "æ¿±": 4096,
      "ÑĢ": 4097,
      "ç©ºéĹ´": 4098,
      "51": 4099,
      "1984": 4100,
      "her": 4101,
      "Ġde": 4102,
      "æĲį": 4103,
      "åĲĦç¨®": 4104,
      "//": 4105,
      "è¼Ŀ": 4106,
      "ĠPro": 4107,
      "åĳ½ä»¤": 4108,
      "åı·çº¿": 4109,
      "æ²³åĮĹ": 4110,
      "çļĦçłĶç©¶": 4111,
      "éĽ»èħ¦": 4112,
      "æ¢ĿçĽ®": 4113,
      "å¨Ľ": 4114,
      ")-": 4115,
      "éĢ²å£«": 4116,
      "çļĦæĦı": 4117,
      "é¸Ł": 4118,
      "......": 4119,
      "è½¯ä»¶": 4120,
      "å»ºç«ĭçļĦ": 4121,
      "çĸĹ": 4122,
      "è®¨": 4123,
      "æĶ¶åħ¥": 4124,
      "åĨłåĨĽ": 4125,
      "ä¸įå¾Ĺ": 4126,
      "å°¤åħ¶": 4127,
      "ä¹³": 4128,
      "æĥħåĨµ": 4129,
      "éĥ½å¸Ĥ": 4130,
      "æŁ´": 4131,
      "å¡ĳ": 4132,
      "ç»¿": 4133,
      "æĶ¹ä¸º": 4134,
      "æ£²": 4135,
      "åŃ¦ä¹ł": 4136,
      "åįģä¸Ģ": 4137,
      "èĮĥåĽ´": 4138,
      "åĩĮ": 4139,
      "æįŁ": 4140,
      "ç´Ķ": 4141,
      "è¾Ń": 4142,
      "èļ": 4143,
      "æī¬": 4144,
      "è£ķ": 4145,
      "ä¿¡ä»°": 4146,
      "æľīåħ³": 4147,
      "ä¹Łè¢«": 4148,
      "çİĭåľĭ": 4149,
      "ç¼ĸçłģ": 4150,
      "å¿ĥçĲĨ": 4151,
      "æĻ¨": 4152,
      "åīĤ": 4153,
      "ork": 4154,
      "åĽłèĢĮ": 4155,
      "ST": 4156,
      "åľ°åĪ©": 4157,
      "è»įéļĬ": 4158,
      "61": 4159,
      "92": 4160,
      "ç»į": 4161,
      "æķĻåłĤ": 4162,
      "æ¹ĺ": 4163,
      "300": 4164,
      "éĥ¨èĲ½": 4165,
      "end": 4166,
      "åĮĹæµ·": 4167,
      "å¤º": 4168,
      "ç´¯": 4169,
      "ç´Ļ": 4170,
      "1983": 4171,
      "èĹī": 4172,
      "è¿Ļæĺ¯": 4173,
      "ĠåŁº": 4174,
      "åĭĥ": 4175,
      "åįģåħ«": 4176,
      "çŃīåľ°": 4177,
      "æ³ķèĺŃ": 4178,
      "ç¸®": 4179,
      "ä»¥å¤ĸ": 4180,
      "é«ĺçļĦ": 4181,
      "ure": 4182,
      "ä½ľèĢħ": 4183,
      "è²¿": 4184,
      "eg": 4185,
      "åģī": 4186,
      "éłħçĽ®": 4187,
      "ä¸²": 4188,
      "52": 4189,
      "æĹłæ³ķ": 4190,
      "å¸®": 4191,
      "æĿĳèĲ½": 4192,
      "å¤§ä½¿": 4193,
      "æĸ°çĸĨ": 4194,
      "åŁİåĮº": 4195,
      "ç¹ª": 4196,
      "çĽ¡": 4197,
      "æİª": 4198,
      "èģ¯éĤ¦": 4199,
      "ç¿ł": 4200,
      "å¹´è¢«": 4201,
      "æıĲé«ĺ": 4202,
      "éĬħ": 4203,
      "å¤±åİ»": 4204,
      "ä¸Ńèı¯äººæ°ĳåħ±åĴĮåľĭ": 4205,
      "ä»»åĬ¡": 4206,
      "çĶ¸": 4207,
      "æĻ®éģį": 4208,
      "æĹ¦": 4209,
      "éłĺå°İ": 4210,
      "ç·£": 4211,
      "æ·®": 4212,
      "è¡ĮåĬ¨": 4213,
      "1982": 4214,
      "æķ°éĩı": 4215,
      "çĻ»åł´": 4216,
      "çį¸": 4217,
      "å½ĵåľ°": 4218,
      "æĴŃæĶ¾": 4219,
      "å±ŀçļĦ": 4220,
      "å¾ª": 4221,
      "å¤·": 4222,
      "è¡Įä¸º": 4223,
      "è³´": 4224,
      "æĭįæĶĿ": 4225,
      "col": 4226,
      "åıªèĥ½": 4227,
      "æµ·æ´ĭ": 4228,
      "åīĩæĺ¯": 4229,
      "Ġç´¢": 4230,
      "AN": 4231,
      "æĪĲäºĨ": 4232,
      "çĻĮ": 4233,
      "éļıçĿĢ": 4234,
      "éļ»": 4235,
      "ç¦ģæŃ¢": 4236,
      "åħ¬å¸ĥ": 4237,
      "æĽ¾åľ¨": 4238,
      "åĨľä¸ļ": 4239,
      "ä¸Ńéĥ¨": 4240,
      "èĽĩ": 4241,
      "è²¢": 4242,
      "è¾¾åĪ°": 4243,
      "rom": 4244,
      "Ġ.": 4245,
      "çľģä»½": 4246,
      "ç¨ĭå¼ı": 4247,
      "æ´Ĺ": 4248,
      "ç¶²è·¯": 4249,
      "ç»¼": 4250,
      "èĭ±èªŀ": 4251,
      "å¸Ĥåľº": 4252,
      "æ£®æŀĹ": 4253,
      "çİ»": 4254,
      "å¸ĮèħĬ": 4255,
      "éĶ¦": 4256,
      "æĸ¯åŁº": 4257,
      "idae": 4258,
      "ãĥ«": 4259,
      "æĹº": 4260,
      "åĨħçļĦ": 4261,
      "æĸĩç«ł": 4262,
      "å¦ĤæŃ¤": 4263,
      "æŃ£åľ¨": 4264,
      "å·§": 4265,
      "åīĳ": 4266,
      "èĵ®": 4267,
      "éł»éģĵ": 4268,
      "åĲ¬": 4269,
      "ont": 4270,
      "æī§è¡Į": 4271,
      "æ³¥": 4272,
      "å°ī": 4273,
      "çĳŀå£«": 4274,
      "éļ§éģĵ": 4275,
      "AM": 4276,
      "æ¼ĶåĶ±æľĥ": 4277,
      "ä¸»æ¼Ķ": 4278,
      "å±±èĦ": 4279,
      "ru": 4280,
      "èĽĭçĻ½": 4281,
      "ON": 4282,
      "91": 4283,
      "å¨Ľæ¨Ĥ": 4284,
      "åĨĬ": 4285,
      "æ»¨": 4286,
      "å¾·éĩĮ": 4287,
      "ä»¥èī²": 4288,
      "å·¥åħ·": 4289,
      "æĸ¯åį¡": 4290,
      "æĴ°": 4291,
      "å®ŀçİ°": 4292,
      "è¡¨éĿ¢": 4293,
      "çĽĳè§Ĩ": 4294,
      "åĴ¸": 4295,
      "éĢĻæĺ¯": 4296,
      "orm": 4297,
      "éŁĭ": 4298,
      "ç¤İ": 4299,
      "è°ĥæŁ¥": 4300,
      "ç¼©": 4301,
      "éĩįçĤ¹": 4302,
      "SE": 4303,
      "çĳŀåħ¸": 4304,
      "An": 4305,
      "1979": 4306,
      "æŁĲäºĽ": 4307,
      "ä»¥èī²åĪĹ": 4308,
      "é¡ŀä¼¼": 4309,
      "ww": 4310,
      "å¹´éĹ´": 4311,
      "ond": 4312,
      "åįĢçļĦ": 4313,
      "è¿Ļæł·": 4314,
      "çļĦä¸Ģéĥ¨åĪĨ": 4315,
      "æ±Łè¥¿": 4316,
      "éªĳ": 4317,
      "éĮ¯": 4318,
      "ä½įæĸ¼è©²åľĭ": 4319,
      "åŃ©åŃĲ": 4320,
      "éģĹåĿĢ": 4321,
      "æĺİæ²»": 4322,
      "æ¬¢": 4323,
      "å¹¶åľ¨": 4324,
      "å¤©çļĩ": 4325,
      "åĢī": 4326,
      "æĪĲç¸¾": 4327,
      "èĢĮæĺ¯": 4328,
      "å¹´ä»¥": 4329,
      "é¡¾": 4330,
      "æªĶ": 4331,
      "åĪ¶éĢł": 4332,
      "71": 4333,
      "å°¼æĸ¯": 4334,
      "æĦ¿": 4335,
      "å·´è¥¿": 4336,
      "åĲįåŃĹ": 4337,
      "åıįæĩī": 4338,
      "æĭīä¸ģ": 4339,
      "åŁºç¤İ": 4340,
      "çļĦæĹ¶": 4341,
      "span": 4342,
      "æ¯Ķä¾ĭ": 4343,
      "åĳĤ": 4344,
      "çĲĨäºĭ": 4345,
      "å¸Įèĩĺ": 4346,
      "çİĭåĽ½": 4347,
      "åļ´éĩį": 4348,
      "è½¨éģĵ": 4349,
      "èĦĤ": 4350,
      "å©¦": 4351,
      "ç©ºéĸĵ": 4352,
      "è¿ĲåĬ¨ä¼ļ": 4353,
      "åĿĹ": 4354,
      "æĮĩæı®": 4355,
      "az": 4356,
      "åµ": 4357,
      "ä¹ı": 4358,
      "åĲĦç§į": 4359,
      "ä¸¦æĸ¼": 4360,
      "æĹ¢": 4361,
      "è³Ģ": 4362,
      "éĢĬ": 4363,
      "çĽĺ": 4364,
      "èĩºä¸Ń": 4365,
      "72": 4366,
      "ĠEn": 4367,
      "ä¸īä¸ĸ": 4368,
      "ai": 4369,
      "å¸ĤçļĦ": 4370,
      "èĩªåĭķ": 4371,
      "æľ¬èº«": 4372,
      "å¢Ļ": 4373,
      "åģ¥åº·": 4374,
      "å¹¿å·ŀ": 4375,
      "ä¸»é¡Į": 4376,
      "è§¸": 4377,
      "è¨Ńæĸ½": 4378,
      "æ³¨æĦı": 4379,
      "æ±Łèĭı": 4380,
      "æĹħæ¸¸": 4381,
      "ide": 4382,
      "éĸī": 4383,
      "Ġ195": 4384,
      "63": 4385,
      "æĭ©": 4386,
      "çļĦä¸ī": 4387,
      "åĸľæŃ¡": 4388,
      "éĢĲæ¼¸": 4389,
      "éµ": 4390,
      "å¯¦é©Ĺ": 4391,
      "è¥¿åĵ¥": 4392,
      "éĴĪ": 4393,
      "è¶ħç´ļ": 4394,
      "ãĤ¤": 4395,
      "Ġ12": 4396,
      "tp": 4397,
      "ç¥Ŀ": 4398,
      "éĻ¸è»į": 4399,
      "å»£æĿ±": 4400,
      "ĠAl": 4401,
      "æĸ¹è¨Ģ": 4402,
      "åĬŀåħ¬": 4403,
      "Ġstyle": 4404,
      "åĪļ": 4405,
      "ç»Łä¸Ģ": 4406,
      "çļĦæĸ¹å¼ı": 4407,
      "å¡ŀå°Ķ": 4408,
      "åĭĭ": 4409,
      "å®īå¾½": 4410,
      "éĥµ": 4411,
      "ä¸Ńåľĭå¤§éĻ¸": 4412,
      "åįĶåĬ©": 4413,
      "çļĦé«ĺ": 4414,
      "åķĨä¸ļ": 4415,
      "åıĶ": 4416,
      "è¾Ĩ": 4417,
      "å¹´äººåı£": 4418,
      "æŁĶ": 4419,
      "æ¹¯": 4420,
      "ä¸¦ä¸į": 4421,
      "ç·Ĵ": 4422,
      "è¿´": 4423,
      "ç¶ĵå¸¸": 4424,
      "æľīäºº": 4425,
      "è¡¨çı¾": 4426,
      "éĺ¿çĪ¾": 4427,
      "ish": 4428,
      "èµĦæºĲ": 4429,
      "83": 4430,
      "è¯ī": 4431,
      "åĸĢ": 4432,
      "çŃīçŃī": 4433,
      "åĮĹäº¬å¸Ĥ": 4434,
      "84": 4435,
      "èĵĿ": 4436,
      "è§Ħå®ļ": 4437,
      "æľªèĥ½": 4438,
      "å´Ķ": 4439,
      "éĸ±": 4440,
      "Ð½": 4441,
      "éģ¿åħį": 4442,
      "äº§åĵģ": 4443,
      "åħ¥ä¾µ": 4444,
      "èįĴ": 4445,
      "åľĸæĽ¸": 4446,
      "åĭ³": 4447,
      "çĽ¸ä¼¼": 4448,
      "74": 4449,
      "çĸ¾çĹħ": 4450,
      "æ°´å¹³": 4451,
      "å®¹æĺĵ": 4452,
      "è®¢": 4453,
      "ore": 4454,
      "çµ¡": 4455,
      "æģ¢å¤į": 4456,
      "éļĭ": 4457,
      "ç´Ĳç´Ħ": 4458,
      "èį·èĺŃ": 4459,
      "æĪĺå½¹": 4460,
      "ook": 4461,
      "æĶ¹è®Ĭ": 4462,
      "çĪ¶äº²": 4463,
      "1978": 4464,
      "ä¹ĭéĸĵçļĦ": 4465,
      "èĦĳ": 4466,
      "éĢ£çºĮ": 4467,
      "è¥¿æ´ĭ": 4468,
      "æĮģçºĮ": 4469,
      "ç©©": 4470,
      "ical": 4471,
      "æ½Ľ": 4472,
      "æµ·å²¸": 4473,
      "ä¸ľåįĹ": 4474,
      "çĩŁéģĭ": 4475,
      "å¯¿": 4476,
      "åħ±çĶ¢": 4477,
      "ah": 4478,
      "Ġ97": 4479,
      "å¿ħé¡»": 4480,
      "æĨ¶": 4481,
      "å®ļç¾©": 4482,
      "åĨĴ": 4483,
      "éģİåİ»": 4484,
      "èĤ¥": 4485,
      "çħ¤": 4486,
      "ä¸ĥå¹´": 4487,
      "ft": 4488,
      "æĢ»çĲĨ": 4489,
      "ear": 4490,
      "åºĬ": 4491,
      "æ±¡": 4492,
      "æ¯Ķè¼ĥ": 4493,
      "å¯Ħ": 4494,
      "oh": 4495,
      "çī©ç§į": 4496,
      "çľĭåĪ°": 4497,
      "è´Ŀå°Ķ": 4498,
      "éĻ¨": 4499,
      "åĨĽåĮº": 4500,
      "åŁºåĽł": 4501,
      "æĬķåħ¥": 4502,
      "é£Ľæ©Ł": 4503,
      "å¹³æĪĲ": 4504,
      "ç±»ä¼¼": 4505,
      "å»ºæĪĲ": 4506,
      "æĥħæ³ģ": 4507,
      "ç²¹": 4508,
      "ç·ļçļĦ": 4509,
      "èĩ³å°ĳ": 4510,
      "å²Ń": 4511,
      "åĲİçļĦ": 4512,
      "æıļ": 4513,
      "éĻķ": 4514,
      "Ġå¤ªç©º": 4515,
      "åĥ§": 4516,
      "ern": 4517,
      "èĪĴ": 4518,
      "çº¿è·¯": 4519,
      "ä¸ĭåįĪ": 4520,
      "æĶ¶éĮĦ": 4521,
      "èĮĤ": 4522,
      "çĻ¼åĭķ": 4523,
      "è¦½": 4524,
      "éĺ´": 4525,
      "æ¨ª": 4526,
      "æī®": 4527,
      "æĿ±åĮĹ": 4528,
      "çº½çº¦": 4529,
      "åĮĸåŃ¸": 4530,
      "åĨįåº¦": 4531,
      "ust": 4532,
      "çļĦäºĭ": 4533,
      "ĠX": 4534,
      "ue": 4535,
      "ç´§": 4536,
      "åĿĬ": 4537,
      "åľŁèĢ³": 4538,
      "1946": 4539,
      "http": 4540,
      "82": 4541,
      "æ·±åľ³": 4542,
      "çĦ¡ç¶«": 4543,
      "1948": 4544,
      "://": 4545,
      "JR": 4546,
      "åħ©äºº": 4547,
      "AC": 4548,
      "æĪĴ": 4549,
      "ç§ĳç½Ĺ": 4550,
      "éĢ£æİ¥": 4551,
      "æ¥ŃåĭĻ": 4552,
      "åľŁèĢ³åħ¶": 4553,
      "ä¸Ģåº¦": 4554,
      "é¡ı": 4555,
      "çī¹å³°": 4556,
      "éĤ»": 4557,
      "ç¨İ": 4558,
      "åĲĮä¸Ģ": 4559,
      "å¢¨è¥¿åĵ¥": 4560,
      "é½¡": 4561,
      "èĥ½éĩı": 4562,
      "æĹ¥çļĦ": 4563,
      "å°ıæĹ¶": 4564,
      "é·": 4565,
      "èŁ²": 4566,
      "åı¯èĥ½æĺ¯": 4567,
      "åľĭæ°ĳé»¨": 4568,
      "çº¸": 4569,
      "BD": 4570,
      "å¦Ĥä¸ĭ": 4571,
      "åĩ½æķ°": 4572,
      "81": 4573,
      "æĵĬæķĹ": 4574,
      "ç¨¿": 4575,
      "åł±åĳĬ": 4576,
      "å¼ĢæĶ¾": 4577,
      "çĭĤ": 4578,
      "son": 4579,
      "åħŃå¹´": 4580,
      "éŃĤ": 4581,
      "æĺ¯ä¸Ģç§į": 4582,
      "å¢ŀéķ¿": 4583,
      "äº¨åĪ©": 4584,
      "èĩªè¡Į": 4585,
      "åŃ¸ç¿Ĵ": 4586,
      "69": 4587,
      "æ±ª": 4588,
      "è®®ä¼ļ": 4589,
      "Windows": 4590,
      "å¤ªåŃĲ": 4591,
      "ä¹ĭéĹ´çļĦ": 4592,
      "79": 4593,
      "åĤħ": 4594,
      "å¼¦": 4595,
      "èĭ±æł¼èĺŃ": 4596,
      "çĭĦ": 4597,
      "ĠåŁºçī¹å³°": 4598,
      "å§¬": 4599,
      "è¦ĸçĤº": 4600,
      "çĶ¢åĵģ": 4601,
      "73": 4602,
      "è¯¾": 4603,
      "ä¸įè¶³": 4604,
      "å±ł": 4605,
      "è¨ĵç·´": 4606,
      "ph": 4607,
      "éĩįå»º": 4608,
      "å®£ä½Ī": 4609,
      "èĩªæ²»åĮº": 4610,
      "æĪªèĩ³": 4611,
      "åĩºåı£": 4612,
      "Ġå¤ªç©ºçĽĳè§Ĩ": 4613,
      "åĪ¸": 4614,
      "çļĦåİŁ": 4615,
      "å¹´éĸĵ": 4616,
      "å»£åĳĬ": 4617,
      "æµ·å¤ĸ": 4618,
      "ä¹¾éļĨ": 4619,
      "çģ½": 4620,
      "ãĢĬãĢĭ": 4621,
      "å¾Ĺä»¥": 4622,
      "æĵİ": 4623,
      "å°½ç®¡": 4624,
      "Ġ+": 4625,
      "ri": 4626,
      "ç¾¤å³¶": 4627,
      "éĩįåºĨ": 4628,
      "æ¶Īæģ¯": 4629,
      "éĩĳå±¬": 4630,
      "ä¸Ģå®ļ": 4631,
      "ä½ľè©ŀ": 4632,
      "uc": 4633,
      "éķľ": 4634,
      "ä¹Ŀé¾į": 4635,
      "èĢĮè¢«": 4636,
      "éĺª": 4637,
      "è¿ŀæİ¥": 4638,
      "é©¬æĿ¥è¥¿äºļ": 4639,
      "ä»¿": 4640,
      "æıĲåĲį": 4641,
      "èĹ©": 4642,
      "çļĦéĩįè¦ģ": 4643,
      "éĿĻ": 4644,
      "ment": 4645,
      "åıĳåĬ¨": 4646,
      "è¡į": 4647,
      "åĲĮçĽŁ": 4648,
      "æĸ¹çļĦ": 4649,
      "éĢīæĭ©": 4650,
      "å¥¥è¿Ĳ": 4651,
      "éļ¨å¾Į": 4652,
      "å£«åħµ": 4653,
      "äºļæ´²": 4654,
      "è²łè²¬ç®¡è½Ħ": 4655,
      "é©ħ": 4656,
      "ä¸įè¿ĩ": 4657,
      "èģĮä¸ļ": 4658,
      "row": 4659,
      "èĥ½å¤Ł": 4660,
      "BA": 4661,
      "ĠãĢĮ": 4662,
      "å§Ķä¼ļ": 4663,
      "åĲĪä½µ": 4664,
      "æĬ¥åĳĬ": 4665,
      "Ġ9": 4666,
      "äººä»¬": 4667,
      "èªł": 4668,
      "çı¾æĻĤ": 4669,
      "æģĲæĢ": 4670,
      "æ£ĴçĲĥ": 4671,
      "çĽ´èĩ³": 4672,
      "æ½Ń": 4673,
      "Ðº": 4674,
      "ä¸Ģç§į": 4675,
      "åĪĽä½ľ": 4676,
      "äººåĴĮ": 4677,
      "Ġæĸ°": 4678,
      "com": 4679,
      "æľĪçĲĥ": 4680,
      "éĴ¢": 4681,
      "ĠæĹ¥æľ¬": 4682,
      "è¿ħéĢŁ": 4683,
      "èĻĽ": 4684,
      "ä¹ĭä¸ĭ": 4685,
      "çĪ¾æĸ¯": 4686,
      "èħ¹": 4687,
      "æĻĤåĢĻ": 4688,
      "æľīæīĢ": 4689,
      "ram": 4690,
      "ä¹Łåľ¨": 4691,
      "åŃ¦èĢħ": 4692,
      "è¦ıæ¨¡": 4693,
      "æĺ¯ä»¥": 4694,
      "ä¹Ŀå¹´": 4695,
      "éĤĵ": 4696,
      "åįĥç±³": 4697,
      "æ¬²": 4698,
      "è®°è½½": 4699,
      "è¨ĺè¼ī": 4700,
      "çĩĪ": 4701,
      "ä¸ĢåĲĮ": 4702,
      "è²Į": 4703,
      "ç¥ĸçĪ¶": 4704,
      "åįģä¸ī": 4705,
      "å¹´åīį": 4706,
      "æ¹ĸåĮĹ": 4707,
      "ä»»åĭĻ": 4708,
      "èĤ¡ä»½": 4709,
      "ld": 4710,
      "éĥĬ": 4711,
      "éĺģ": 4712,
      "å¤§æľĥ": 4713,
      "åįģåŃĹ": 4714,
      "æĿ±åįĹ": 4715,
      "ne": 4716,
      "è®ĬåĮĸ": 4717,
      "æķĻæľĥ": 4718,
      "é¡Ĩ": 4719,
      "å°ıçļĦ": 4720,
      "å¡Ĭ": 4721,
      "åĿı": 4722,
      "çĦ¦": 4723,
      "åĪĨéĲĺ": 4724,
      "çĪĨçĻ¼": 4725,
      "åĤ¨": 4726,
      "æįĲ": 4727,
      "èĨľ": 4728,
      "UTC": 4729,
      "åĽ½ä¼ļ": 4730,
      "åĲĲ": 4731,
      "AT": 4732,
      "å¯Ĵ": 4733,
      "åī©": 4734,
      "åŃ¦åĲį": 4735,
      "æ¨¡åŀĭ": 4736,
      "ä¸ºä¸»": 4737,
      "æĢĴ": 4738,
      "éľĢæ±Ĥ": 4739,
      "æķ°åŃ¦": 4740,
      "åŃ¤": 4741,
      "ä¸Ĭæĺł": 4742,
      "é£Łåĵģ": 4743,
      "è§ĦåĪĴ": 4744,
      "æĮīçħ§": 4745,
      "èĪĪå»º": 4746,
      "è¡ĮæĶ¿åĮºåĪĴ": 4747,
      "éĢĲæ¸Ĳ": 4748,
      "æīįèĥ½": 4749,
      "å§Ĩæĸ¯": 4750,
      "å¡«": 4751,
      "ç·¨æĽ²": 4752,
      "åĽ¾ä¹¦": 4753,
      "æģ¶": 4754,
      "ãĥĪ": 4755,
      "å¦Ĥä½ķ": 4756,
      "çµ±ä¸Ģ": 4757,
      "çĽ®æ¨Ļ": 4758,
      "å¼ķæĵİ": 4759,
      "è¯¯": 4760,
      "æĭīå¤«": 4761,
      "çĬ¹å¤ª": 4762,
      "çłĶç©¶å°ıç»Ħ": 4763,
      "åį«æĺŁ": 4764,
      "æ¨Ĥåľĺ": 4765,
      "åħ¨éĿ¢": 4766,
      "å¹³åİŁ": 4767,
      "éŃĶæ³ķ": 4768,
      "èı²å¾ĭ": 4769,
      "ug": 4770,
      "ç²µ": 4771,
      "è¨ĺèĢħ": 4772,
      "æĩīçĶ¨": 4773,
      "æĪ°å¾Į": 4774,
      "æĢ»äººåı£": 4775,
      "åĮĸåĲĪçī©": 4776,
      "aw": 4777,
      "çĽ¾": 4778,
      "çªĹ": 4779,
      "æĦŁåĪ°": 4780,
      "æŁıæŀĹ": 4781,
      "ĠSp": 4782,
      "1981": 4783,
      "éĽľèªĮ": 4784,
      "ä¹Łåı¯ä»¥": 4785,
      "åįľ": 4786,
      "æ¬£": 4787,
      "å½¢è±¡": 4788,
      "æ¢¯": 4789,
      "1947": 4790,
      "çĽ¸å°į": 4791,
      "èĪŀåı°": 4792,
      "åĽłç´ł": 4793,
      "150": 4794,
      "ĊĊĠĊ": 4795,
      "çĽ¸éĹľæ¢ĿçĽ®": 4796,
      "ä¸Ī": 4797,
      "ĠæŀĹèĤ¯": 4798,
      "out": 4799,
      "ä¸¥éĩį": 4800,
      "å¸Ĥæ°ĳ": 4801,
      "ä¸Ŀ": 4802,
      "æĺ¾ç¤º": 4803,
      "ç»¼åĲĪ": 4804,
      "OS": 4805,
      "çļĦåľ°æĸ¹": 4806,
      "éģľ": 4807,
      "ä¸ĭéĻį": 4808,
      "åģµ": 4809,
      "å®īæİĴ": 4810,
      "åħĴåŃĲ": 4811,
      "æ¾³æ´²": 4812,
      "æ¯Ķå¦Ĥ": 4813,
      "è¿¹": 4814,
      "æ¯ĶåĪ©": 4815,
      "æĬ½": 4816,
      "æī¹è©ķ": 4817,
      "åŃ¦ç§ĳ": 4818,
      "éĶĻ": 4819,
      "åķŁçĶ¨": 4820,
      "è¿ĳåľ°å°ıè¡ĮæĺŁçłĶç©¶å°ıç»Ħ": 4821,
      "ĠæŀĹèĤ¯è¿ĳåľ°å°ıè¡ĮæĺŁçłĶç©¶å°ıç»Ħ": 4822,
      "Ġç´¢ç§ĳç½Ĺ": 4823,
      "ric": 4824,
      "åłĨ": 4825,
      "éĥ½æľĥ": 4826,
      "åĨĮ": 4827,
      "1940": 4828,
      "ä¹ĭä¸Ń": 4829,
      "ark": 4830,
      "äº§ä¸ļ": 4831,
      "æģĲæĢĸ": 4832,
      "äº¦æľī": 4833,
      "æĸĳ": 4834,
      "éĢĨ": 4835,
      "å£ĩ": 4836,
      "åĢ«æķ¦": 4837,
      "èł": 4838,
      "é£Ľè¡Į": 4839,
      "ç¨³": 4840,
      "åİĦ": 4841,
      "è®¡ç®Ĺæľº": 4842,
      "ç¿ģ": 4843,
      "Ġ2005": 4844,
      "å¿į": 4845,
      "æı¡": 4846,
      "åħĭèĺŃ": 4847,
      "éĹľæĸ¼": 4848,
      "1937": 4849,
      "è²¿æĺĵ": 4850,
      "è®®åĳĺ": 4851,
      "äºĭæķħ": 4852,
      "çĴĥ": 4853,
      "æ³¨éĩĬ": 4854,
      "è¡ĮæĶ¿åįĢ": 4855,
      "è¼»": 4856,
      "ace": 4857,
      "è¾ŀ": 4858,
      "æĬĹæĹ¥": 4859,
      "æĺ¯ä¸Ģç¨®": 4860,
      "ä¹ĭåŃĲ": 4861,
      "ber": 4862,
      "æĺ¯ä¸ŃåĽ½": 4863,
      "åĬĩåł´": 4864,
      "æĪĺæĸĹ": 4865,
      "Ġ11": 4866,
      "ä¸īè§Ĵ": 4867,
      "éĻĢ": 4868,
      "ata": 4869,
      "æµģåŁŁ": 4870,
      "ç®±": 4871,
      "çĩĴ": 4872,
      "å¹´åºķ": 4873,
      "çĸı": 4874,
      ":)": 4875,
      "åĲĪå¹¶": 4876,
      "Ġ2009": 4877,
      "èģĶèµĽ": 4878,
      "å»Ī": 4879,
      "ĠZ": 4880,
      "å®Įæķ´": 4881,
      "å¸ĪèĮĥ": 4882,
      "åįļçī©é¤¨": 4883,
      "Ġ2008": 4884,
      "åĴĮåħ¶ä»ĸ": 4885,
      "çļĦåĪĨ": 4886,
      "1958": 4887,
      "iversity": 4888,
      "å½¼å¾Ĺ": 4889,
      "å¹¶ä¸į": 4890,
      "Ġ978": 4891,
      "çıĬ": 4892,
      "è´¸æĺĵ": 4893,
      "ç¡«": 4894,
      "é¢ĨåŁŁ": 4895,
      "æİĪäºĪ": 4896,
      "åľ°éĿ¢": 4897,
      "å¥³æ¼Ķåĵ¡": 4898,
      "å¤©ä¸ĭ": 4899,
      "å¯»": 4900,
      "éĽ»åı°": 4901,
      "æıĲåįĩ": 4902,
      "çĭĹ": 4903,
      "å¨ĺ": 4904,
      "é¦¬ä¾Ĩ": 4905,
      "ä¸ĸçķĮä¸Ĭ": 4906,
      "ä¸Ńæľī": 4907,
      "çļĦé¦ĸ": 4908,
      "æŃ¤åĲİ": 4909,
      "çĪĨåıĳ": 4910,
      "å¬": 4911,
      "æ··åĲĪ": 4912,
      "çĭĢæ³ģ": 4913,
      "çĽ¸æ¯Ķ": 4914,
      "è¢«ç§°ä¸º": 4915,
      "éĦ§": 4916,
      "åĢĭæľĪ": 4917,
      "åħĴç«¥": 4918,
      "åĲĮæ¨£": 4919,
      "1975": 4920,
      "åĪ·": 4921,
      "IS": 4922,
      "ÃĹ": 4923,
      "è¡¨æĺİ": 4924,
      "ç§ĺå¯Ĩ": 4925,
      "æĿ¡ä»¶": 4926,
      "Ġet": 4927,
      "åĵģçīĮ": 4928,
      "ä¸īä¸ª": 4929,
      "æ¢Ŀç´Ħ": 4930,
      "çįĦ": 4931,
      "ç¶ĵçĩŁ": 4932,
      "æŀĿ": 4933,
      "åĿĤ": 4934,
      "é£²": 4935,
      "éĢĻæ¨£": 4936,
      "è¿ĲèĲ¥": 4937,
      "ä¹°": 4938,
      "åĦ¿åŃĲ": 4939,
      "é£ŀæľº": 4940,
      "å¦ĩ": 4941,
      "çŁ¥åĲį": 4942,
      "éįµ": 4943,
      "å·¥äºº": 4944,
      "è¨Īç®Ĺ": 4945,
      "æĹ¨": 4946,
      "çĻ½èī²": 4947,
      "åľ°éĵģ": 4948,
      "Ġre": 4949,
      "mer": 4950,
      "å®ĥåĢĳ": 4951,
      "éĹŃ": 4952,
      "1952": 4953,
      "éĥ¨éĹ¨": 4954,
      "åıĺåĮĸ": 4955,
      "èģĶåĲĪåĽ½": 4956,
      "Ġ2006": 4957,
      "æ¯Ľæ³½": 4958,
      "ĊĊĠ": 4959,
      "å¼ĥ": 4960,
      "ç¬¬åħ«": 4961,
      "å»ºèŃ°": 4962,
      "é©±": 4963,
      "æĽ´åĬł": 4964,
      "ç±ĥ": 4965,
      "çľŁæŃ£": 4966,
      "ç©ºåĨĽ": 4967,
      "çļĦä½ľåĵģ": 4968,
      "åľ°éľĩ": 4969,
      "èĴ¸": 4970,
      "åĩºæ¼Ķ": 4971,
      "éļ±": 4972,
      "åľĭæľĥ": 4973,
      "ĠçļĦ": 4974,
      "éļİæ®µ": 4975,
      "ä»¥ä¾Ĩ": 4976,
      "æ¢¦": 4977,
      "çŁ³æ²¹": 4978,
      "æ½ľ": 4979,
      "æ³¢åħ°": 4980,
      "æĹ¥è»į": 4981,
      "éĺħè¯»": 4982,
      "é«ĺéĢŁåħ¬è·¯": 4983,
      "åįĳ": 4984,
      "æĬķèµĦ": 4985,
      "...": 4986,
      "åħĪåĲİ": 4987,
      "Ġ2000": 4988,
      "ung": 4989,
      "æ¯Ľæ³½ä¸ľ": 4990,
      "é§ķ": 4991,
      "å§ļ": 4992,
      "çĭ¼": 4993,
      "æ¯Ķè¾ĥ": 4994,
      "çºµ": 4995,
      "è§Ī": 4996,
      "ãĥ©": 4997,
      "è¨Ńç½®": 4998,
      "è·Ŀç¦»": 4999,
      "æĭ¼": 5000,
      "ç¤¦": 5001,
      "act": 5002,
      "ç¶ŃæĮģ": 5003,
      "é£Łçī©": 5004,
      "æ¯Ķäºļ": 5005,
      "åı¸æ³ķ": 5006,
      "ä¿ĺ": 5007,
      "èķŃ": 5008,
      "æ®ĺ": 5009,
      "ice": 5010,
      "éĸĭæĶ¾": 5011,
      "çµĦåĲĪ": 5012,
      "æķĪæŀľ": 5013,
      "åįģäºĶ": 5014,
      "ĠâĢĶ": 5015,
      "è¦ıå®ļ": 5016,
      "å¯¨": 5017,
      "çĪŃèŃ°": 5018,
      "èµ·æºĲ": 5019,
      "æŃ¦æ±ī": 5020,
      "èŃľ": 5021,
      "æķ¸æĵļ": 5022,
      "åį³ä½¿": 5023,
      "äººåı£å¯Ĩåº¦": 5024,
      "ä¸Ģæł·": 5025,
      "é£¯": 5026,
      "éģķ": 5027,
      "éģĶåĪ°": 5028,
      "æľªä¾Ĩ": 5029,
      "åĦĺ": 5030,
      "çĮ¶": 5031,
      "ä¹Łä¸į": 5032,
      "è¿Ĳè¡Į": 5033,
      "ç»ĺ": 5034,
      "æıŃ": 5035,
      "ãģĦ": 5036,
      "å±±å¤§": 5037,
      "ÑĤ": 5038,
      "æĽ´å¤ļ": 5039,
      "çļĦä¸Ń": 5040,
      "é¢¨æł¼": 5041,
      "ction": 5042,
      "ç¨ħ": 5043,
      "Ġä¸Ń": 5044,
      "è¾ħ": 5045,
      "çĬ¯ç½ª": 5046,
      "æĵ¬": 5047,
      "æľºåħ³": 5048,
      "éģµ": 5049,
      "ä¼½": 5050,
      "çĽ¸å¯¹": 5051,
      "1941": 5052,
      "ational": 5053,
      "è©³": 5054,
      "å±Ĭåħ¨åĽ½": 5055,
      "åı¤åħ¸": 5056,
      "æĲ¬": 5057,
      "1956": 5058,
      "åĿİ": 5059,
      "ost": 5060,
      "æĭŁ": 5061,
      "sh": 5062,
      "çļĦå¤ĸ": 5063,
      "éĥ¨éķ·": 5064,
      "çħ§çīĩ": 5065,
      "èĸĦ": 5066,
      "å»Ĭ": 5067,
      "æĺ¯ä¸Ģé¢ĹæģĴæĺŁ": 5068,
      "ç¹¼æī¿": 5069,
      "çī©è´¨": 5070,
      "å°ĩåħ¶": 5071,
      "èĳ¡èĲĦçīĻ": 5072,
      "oy": 5073,
      "è®¾å¤ĩ": 5074,
      "çįµ": 5075,
      "å¤ķ": 5076,
      "éĢĻä¸Ģ": 5077,
      "èĭ±è¯Ń": 5078,
      "å®īå¾·": 5079,
      "éĭĴ": 5080,
      "å¥¶": 5081,
      "1976": 5082,
      "ina": 5083,
      "åįłé¢Ĩ": 5084,
      "å»ºè¨Ń": 5085,
      "å§Ĭ": 5086,
      "çģ¾": 5087,
      "éĻĨåĨĽ": 5088,
      "åĮºä¸º": 5089,
      "éĻ¢å£«": 5090,
      "ç¬Ķ": 5091,
      "ç¸½çĿ£": 5092,
      "Ġby": 5093,
      "ä¿®æĶ¹": 5094,
      "åįıè®®": 5095,
      "ç¼ºä¹ı": 5096,
      "åħ¬åħĥåīį": 5097,
      "å§»": 5098,
      "èĪīäºº": 5099,
      "èĴĻå±±": 5100,
      "çģ«ç®Ń": 5101,
      "ach": 5102,
      "æĿ¡çº¦": 5103,
      "åŀĤ": 5104,
      "å®ĺåĳĺ": 5105,
      "åħ¬çĪµ": 5106,
      "çįİéłħ": 5107,
      "æ°¯": 5108,
      "å¹¿æ³Ľ": 5109,
      "Ġ17": 5110,
      "æĶ¹ç·¨": 5111,
      "åľ¨å¤§": 5112,
      "åĲ¸å¼ķ": 5113,
      "æĤī": 5114,
      "éĶ®": 5115,
      "æľĢå¤ļ": 5116,
      "é¹½": 5117,
      "è¾°": 5118,
      "åĮĹæĸ¹": 5119,
      "åģ¶åĥı": 5120,
      "çī¹çļĦ": 5121,
      "å¤§åŃ¸æł¡åıĭ": 5122,
      "æ¸¸æ³³": 5123,
      "å±ķéĸĭ": 5124,
      "éĻįä½İ": 5125,
      "çĶµè§Ĩåı°": 5126,
      "1955": 5127,
      "åıĳå°Ħ": 5128,
      "æĺŁçļĦ": 5129,
      "ĠæĿİ": 5130,
      "çĪĨçĤ¸": 5131,
      "ä½ľæĪ°": 5132,
      "æµ·åŁŁ": 5133,
      "æŃ£å¸¸": 5134,
      "åī¯ä¸»å¸Ń": 5135,
      "åĨ¯": 5136,
      "éĩįå¤§": 5137,
      "åĲĪæĪĲ": 5138,
      "èĢĮè¨Ģ": 5139,
      "é¼ł": 5140,
      "æĸľ": 5141,
      "èħĲ": 5142,
      "ium": 5143,
      "æĦŁæŁĵ": 5144,
      "05": 5145,
      "çįħ": 5146,
      "æķ´ä¸ª": 5147,
      "èĹĿäºº": 5148,
      "ç»Łè®¡": 5149,
      "è²ĿçĪ¾": 5150,
      "å®ĺæĸ¹ç¶²ç«Ļ": 5151,
      "1920": 5152,
      "é£İæł¼": 5153,
      "Ð»": 5154,
      "æĽ°": 5155,
      "åľĸæĽ¸é¤¨": 5156,
      "Ġat": 5157,
      "ç¤¾ä¼ļä¸»ä¹ī": 5158,
      "ä¸Ļ": 5159,
      "é¢ĳéģĵ": 5160,
      "èµĸ": 5161,
      "å¥§éģĭ": 5162,
      "æĪ°å½¹": 5163,
      "åħ¬åĪĨ": 5164,
      "èĥİ": 5165,
      "åĲĮæĢ§": 5166,
      "éĮ«": 5167,
      "ç¾©å¤§åĪ©": 5168,
      "åª½": 5169,
      "åľ¨åħ¶": 5170,
      "å¶º": 5171,
      "æ²¿æµ·": 5172,
      "ç±Į": 5173,
      "lay": 5174,
      "åįģåĽĽ": 5175,
      "çĶŁçļĦ": 5176,
      "ä¸Ńåįİæ°ĳåĽ½": 5177,
      "æĪĲç«ĭçļĦ": 5178,
      "æ¸Ľå°ĳ": 5179,
      "æĶ¿æĿĥ": 5180,
      "åĮºçļĦ": 5181,
      "æĬ¥éģĵ": 5182,
      "åıĪç¨±": 5183,
      "æł¡éķ¿": 5184,
      "ica": 5185,
      "æģ¢å¾©": 5186,
      "è®°å½ķ": 5187,
      "åĲķ": 5188,
      "äºĳåįĹ": 5189,
      "ä½ľæĽ²å®¶": 5190,
      "ãĢĭ:": 5191,
      "èĢĹ": 5192,
      "åĩºå¸Ń": 5193,
      "åŃ¦ä¼ļ": 5194,
      "éłĺåŁŁ": 5195,
      "èī¦éļĬ": 5196,
      "å©Ĩ": 5197,
      "æĸĩçī©ä¿ĿæĬ¤": 5198,
      "å¶¼": 5199,
      "åĬĳ": 5200,
      "1938": 5201,
      "ä»£çĲĨ": 5202,
      "ee": 5203,
      "å¥¥æŀĹåĮ¹åħĭ": 5204,
      "å¼ķçĶ¨": 5205,
      "Ñĸ": 5206,
      "æķĻåįĢ": 5207,
      "æĬķéĻį": 5208,
      "1944": 5209,
      "ä¹ĺå®¢": 5210,
      "é«®": 5211,
      "åįĬå³¶": 5212,
      "ç·ļè»Ĭç«Ļ": 5213,
      "Ġé£¾æ¼Ķ": 5214,
      "å°Ķå¾·": 5215,
      "æ±½è½¦": 5216,
      "çĶ¨æĪ·": 5217,
      "åįĴ": 5218,
      "åĮ¯": 5219,
      "å¹«åĬ©": 5220,
      "ä¸¾åĬŀ": 5221,
      "çī©ç¨®": 5222,
      "çĽ¸ä¿¡": 5223,
      "éħįåĲĪ": 5224,
      "æ¾³å¤§åĪ©äºļ": 5225,
      "ç¥Ģ": 5226,
      "ence": 5227,
      "ãĢĤ[": 5228,
      "cn": 5229,
      "ä¸įæĺİ": 5230,
      "æĹ¥æľŁ": 5231,
      "è®¾æľī": 5232,
      "04": 5233,
      "æİ¥å£¤": 5234,
      "06": 5235,
      "ä¸ľéĥ¨": 5236,
      "éķ·çļĦ": 5237,
      "âĢĻ": 5238,
      "PS": 5239,
      "è®ĬæĪĲ": 5240,
      "è¬Ĥ": 5241,
      "å¹¾ä¹İ": 5242,
      "1939": 5243,
      "æķ´åĢĭ": 5244,
      "èŃ°éĻ¢": 5245,
      "Al": 5246,
      "åħĨ": 5247,
      "åĩ¤": 5248,
      "ile": 5249,
      "ä»¥åīį": 5250,
      "è¥¿å¤§": 5251,
      "é«ĺç´ļ": 5252,
      "é«ĶçļĦ": 5253,
      "è®¾ç½®": 5254,
      "åĽ½åĨħ": 5255,
      "éģĭè¼¸": 5256,
      "ç£¨": 5257,
      "cl": 5258,
      "Ġ2007": 5259,
      "çĽ¸äºĴ": 5260,
      "åıĪåĲįBD": 5261,
      "é¶": 5262,
      "æ³ķæ¡Ī": 5263,
      "å¯¼æ¼Ķ": 5264,
      "çĭĢæħĭ": 5265,
      "åº·çĨĻ": 5266,
      "æ±½è»Ĭ": 5267,
      "400": 5268,
      "è¥¿å®ī": 5269,
      "åĬĩæĥħ": 5270,
      "æ£²æģ¯": 5271,
      "ox": 5272,
      "ç·¨èĻŁ": 5273,
      "ĠNew": 5274,
      "çīĻåĪ©": 5275,
      "æľ´": 5276,
      "ä»ĸæĺ¯": 5277,
      "åĮĪçīĻåĪ©": 5278,
      "HK": 5279,
      "ä¸Ĭæµ·å¸Ĥ": 5280,
      "ä½ĵçļĦ": 5281,
      "æ³ķçļĦ": 5282,
      "æĸĩæĺİ": 5283,
      "èĩªèº«": 5284,
      "ç¨»": 5285,
      "1000": 5286,
      "æ²»çĻĤ": 5287,
      "éĽĢ": 5288,
      "å°ĳå°Ĩ": 5289,
      "åĬłæĿ¥": 5290,
      "èĿ¶": 5291,
      "èĭĳ": 5292,
      "æĤ²": 5293,
      "è²«": 5294,
      "æ¶īåıĬ": 5295,
      "çł²": 5296,
      "Ġk": 5297,
      "è´«": 5298,
      "è¢«ç¨±çĤº": 5299,
      "çĪ¶æ¯į": 5300,
      "1930": 5301,
      "æ©Łæľĥ": 5302,
      "çī©è³ª": 5303,
      "çĶµåĬĽ": 5304,
      "èª²ç¨ĭ": 5305,
      "äºİæĺ¯": 5306,
      "æĶ¹åĸĦ": 5307,
      "æľĪèĩ³": 5308,
      "ç¾½æ¯Ľ": 5309,
      "07": 5310,
      "ix": 5311,
      "ç»©": 5312,
      "Ġ[": 5313,
      "å¹´å»ºç«ĭçļĦ": 5314,
      ".,": 5315,
      "è¿Ľè¡ĮäºĨ": 5316,
      "ç°¡ç¨±": 5317,
      "èĪ°éĺŁ": 5318,
      "æļĤ": 5319,
      "æĿĤå¿Ĺ": 5320,
      "1972": 5321,
      "è©ķè«ĸ": 5322,
      "æİªæĸ½": 5323,
      "è»Įéģĵ": 5324,
      "1968": 5325,
      "ç¼ĸçłģä¸º": 5326,
      "æĦıå¿Ĺ": 5327,
      "MA": 5328,
      "å¦ĸ": 5329,
      "åİŁä½ı": 5330,
      "ä»¥æĿ¥": 5331,
      "yp": 5332,
      "å¤ªéĺ³": 5333,
      "ĠSh": 5334,
      "ss": 5335,
      "tern": 5336,
      "ä¸ĭè¾ĸ": 5337,
      "éģ¸æīĭ": 5338,
      "èĲ¬äºº": 5339,
      "è¿Ī": 5340,
      "int": 5341,
      "çµĲå©ļ": 5342,
      "Ġ2001": 5343,
      "ä¸ĵè¾ĳ": 5344,
      "åĦĺç®¡": 5345,
      "ç»´äºļ": 5346,
      "1936": 5347,
      "ire": 5348,
      "é¨İå£«": 5349,
      "è¡¨çİ°": 5350,
      "å¨ģå°Ķ": 5351,
      "ç¿Ķ": 5352,
      "olog": 5353,
      "å®¶çļĦ": 5354,
      "æ°ĶåĢĻ": 5355,
      "ä¼Ł": 5356,
      "èľĤ": 5357,
      "æ©ŁéĹľ": 5358,
      "é»ĳèī²": 5359,
      "çµ±è¨Ī": 5360,
      "æĮª": 5361,
      "å¾ĹçŁ¥": 5362,
      "1973": 5363,
      "ä¸»æĮģäºº": 5364,
      "åģ·": 5365,
      "åĳ¨éĤĬ": 5366,
      "1966": 5367,
      "ĠUniversity": 5368,
      "åĪĨé¡ŀ": 5369,
      "é¦ĸåħĪ": 5370,
      "å¸ĤæĶ¿åºľ": 5371,
      "çĦ¶å¾Į": 5372,
      "èªķ": 5373,
      "åľ°åĮºçļĦ": 5374,
      "ç©ºä¸Ń": 5375,
      "æľĪåĪĿ": 5376,
      "åĲįç§°": 5377,
      "03": 5378,
      "é¦ĸçĽ¸": 5379,
      "æīĢæľīçļĦ": 5380,
      "ä»ĩ": 5381,
      "VD": 5382,
      "è°±": 5383,
      "å¦Ļ": 5384,
      "åı²ä¸Ĭ": 5385,
      "å®£åĤ³": 5386,
      "æĶ¿æ¬Ĭ": 5387,
      "æŃ§": 5388,
      "ĠCl": 5389,
      "æľĥåľ¨": 5390,
      "iss": 5391,
      "æľŁçļĦ": 5392,
      "ç¢İ": 5393,
      "èĢĮä¸į": 5394,
      "08": 5395,
      "ISBN": 5396,
      "çľģå¸Ĥéķĩ": 5397,
      "ãĢĭ()": 5398,
      "èĩ¨æĻĤ": 5399,
      "å¹½": 5400,
      "æ³¡": 5401,
      "æħ®": 5402,
      "çī¹èī²": 5403,
      "æ®ĭ": 5404,
      "å½ĵéĢī": 5405,
      "æĸĩçī©ä¿ĿæĬ¤åįķä½į": 5406,
      "é©ļ": 5407,
      "ç´°èĥŀ": 5408,
      "æĭĴçµķ": 5409,
      "æ¡ĥåľĴ": 5410,
      "ci": 5411,
      "çĽ®æłĩ": 5412,
      "å±ķç¤º": 5413,
      "åĽºå®ļ": 5414,
      "åĬłæĿ¥æµ·å³¡": 5415,
      "orld": 5416,
      "OR": 5417,
      "å¤§å¤ļæķ°": 5418,
      "å¯¦æĸ½": 5419,
      "å«ģ": 5420,
      "çĥıåħĭèĺŃ": 5421,
      "å¤§ç´Ħ": 5422,
      "é¢ľ": 5423,
      "è¿ĺæĺ¯": 5424,
      "ç·¨åĬĩ": 5425,
      "é¼»": 5426,
      "ä¸īåĢĭ": 5427,
      "æĶ¹éĢł": 5428,
      "æī®æ¼Ķ": 5429,
      "è¿¦": 5430,
      "ãĤ¢": 5431,
      "Ġth": 5432,
      "ç¬¦åĲĪ": 5433,
      "åľĭçļĦ": 5434,
      "æ¶µ": 5435,
      "å¯Įå£«": 5436,
      "1954": 5437,
      "çĬ¬": 5438,
      "1965": 5439,
      "ä¿ĿåŃĺ": 5440,
      "çł´å£ŀ": 5441,
      "æĪĳçļĦ": 5442,
      "1959": 5443,
      "ç¬¬äºĮæ¬¡ä¸ĸçķĮå¤§": 5444,
      "åº¦çļĦ": 5445,
      "ä¾ĭåŃĲ": 5446,
      "è§£åĨ³": 5447,
      "ä¼ĬæľĹ": 5448,
      "å¹¿åľº": 5449,
      "åĲı": 5450,
      "å®ªæ³ķ": 5451,
      "è¿ĳä»£": 5452,
      "æ³¢æĸ¯": 5453,
      "å¸®åĬ©": 5454,
      "éĽĨåĲĪ": 5455,
      "09": 5456,
      "èĥ¸": 5457,
      "å¯¸": 5458,
      "é¢ģ": 5459,
      "è¨ĺéĮĦ": 5460,
      "ult": 5461,
      "âĶĢâĶĢ": 5462,
      "ç§ĳåŃ¦éĻ¢": 5463,
      "çĦ¶åĲİ": 5464,
      "èĪªå¤©": 5465,
      "æī¶": 5466,
      "ãĥª": 5467,
      "1969": 5468,
      "è¢«è¿«": 5469,
      "çļĦæµ·": 5470,
      "are": 5471,
      "åħ±çĶ¢é»¨": 5472,
      "ä¸¸": 5473,
      "å¤ļå¹´": 5474,
      "åĤ³èªª": 5475,
      "åł±å°İ": 5476,
      "ä¸»è¦ģæĺ¯": 5477,
      "è¯ģæĺİ": 5478,
      "å¾Ģå¾Ģ": 5479,
      "ç¦»å¼Ģ": 5480,
      "æĶ¿åºľçļĦ": 5481,
      "çģ«å±±": 5482,
      "ä½ľåĩº": 5483,
      "ç¤¾åĮº": 5484,
      "åľ¨æĹ¥æľ¬": 5485,
      "éĦĤ": 5486,
      "éħĴåºĹ": 5487,
      "åħ¬å¼Ģ": 5488,
      "æ®ĸæ°ĳåľ°": 5489,
      "è¨Ĺ": 5490,
      "éĨĴ": 5491,
      "1964": 5492,
      "é£ŀè¡Į": 5493,
      "1953": 5494,
      "1967": 5495,
      "éĩĳå±ŀ": 5496,
      "çĮĽ": 5497,
      "éĨ«åŃ¸": 5498,
      "è©ķåĥ¹": 5499,
      "è®®éĻ¢": 5500,
      "é¡µ": 5501,
      "ä¸»è¦ģçļĦ": 5502,
      "åĿ¦åħĭ": 5503,
      "é¼İ": 5504,
      "ç¾¤å²Ľ": 5505,
      "å¤§éģĵ": 5506,
      "èĻļ": 5507,
      "æıĲåĪ°": 5508,
      "æķ¢": 5509,
      "rap": 5510,
      "è§£éĩĭ": 5511,
      "éĥ¨éĸĢ": 5512,
      "åĤ¾": 5513,
      "å°ĳæķ°": 5514,
      "æī¾åĪ°": 5515,
      "æķĻå®Ĺ": 5516,
      "é¢±": 5517,
      "å°Ķæĸ¯": 5518,
      "éļĲ": 5519,
      "ä¸Ĭè¿°": 5520,
      "è¿ĳå¹´": 5521,
      "æ¡Īä»¶": 5522,
      "erv": 5523,
      "ãĤ¯": 5524,
      "çĲĨå·¥": 5525,
      "one": 5526,
      "èĸĽ": 5527,
      "ç¡®å®ļ": 5528,
      "ç²Ĺ": 5529,
      "æĹĹä¸ĭ": 5530,
      "1977": 5531,
      "å¤§èĩ´": 5532,
      "æĻĤçļĦ": 5533,
      "ä¸Ģæ®µ": 5534,
      "å¾Īå¿«": 5535,
      "è·¡": 5536,
      "ĠTh": 5537,
      "åĩłä¹İ": 5538,
      "åĹ£": 5539,
      "æķ°åŃĹ": 5540,
      "æ²Ł": 5541,
      "åĨħéĥ¨": 5542,
      "ä¸Ģå¸¶": 5543,
      "çĲĥéĺŁ": 5544,
      "èº«é«Ķ": 5545,
      "æµ·æĭĶé«ĺåº¦": 5546,
      "éĪ´": 5547,
      "ç¨į": 5548,
      "çļĦæĥħæ³ģ": 5549,
      "âĢł": 5550,
      "å»ºäºİ": 5551,
      "çİĭåŃĲ": 5552,
      "èĩºåįĹ": 5553,
      "æī¿èªį": 5554,
      "ä»ĸåĢĳçļĦ": 5555,
      "xt": 5556,
      "èģĺ": 5557,
      "äººåĢĳ": 5558,
      "å¸ĥæĭī": 5559,
      "å®£ä¼ł": 5560,
      "Ġå°ı": 5561,
      "åįģä¹Ŀ": 5562,
      "ç¸±": 5563,
      "èĢĥåı¤": 5564,
      "èľĢ": 5565,
      "éİĸ": 5566,
      "æĶ¿æ²»å®¶": 5567,
      "éĢ¢": 5568,
      "ä»Ĭå¤©": 5569,
      "è§£æ±º": 5570,
      "ĠTe": 5571,
      "è¿Ĳè¾ĵ": 5572,
      "é¢±é¢¨": 5573,
      "åħĭéĩĮ": 5574,
      "ä½ıå®ħ": 5575,
      "ĠPh": 5576,
      "èĤĥ": 5577,
      "ç¹ŀ": 5578,
      "çĥŁ": 5579,
      "å¥Ķ": 5580,
      "æ¯Ķäºŀ": 5581,
      "ä¼¦æķ¦": 5582,
      "åİ¦": 5583,
      "æĪĲéĥ½": 5584,
      "ä¸Ģèĩ´": 5585,
      "éºŁ": 5586,
      "éĤ£äºĽ": 5587,
      "éĤĦæĺ¯": 5588,
      "æ¢Ŀä»¶": 5589,
      "ohn": 5590,
      "éĻķè¥¿": 5591,
      "çľģçº§": 5592,
      "æĻ®æŁ¥": 5593,
      "çĶµè§Ĩåī§": 5594,
      "Ġwith": 5595,
      "å¤©çĦ¶": 5596,
      "æ·»": 5597,
      "æľīèĳĹ": 5598,
      "æĶ»åĩ»": 5599,
      "å¹³æĸ¹ç±³": 5600,
      "ç¸½çĲĨ": 5601,
      "ä¸ĭä»¤": 5602,
      "çļĦå·¥ä½ľ": 5603,
      "èĤº": 5604,
      "æºĸåĤĻ": 5605,
      "æ¯ħ": 5606,
      "é¾ľ": 5607,
      "èİ«æĸ¯ç§ĳ": 5608,
      "ä¿Ŀå®Ī": 5609,
      "å¤ļä¸ª": 5610,
      "åŃ¸è¡ĵ": 5611,
      "ç¼ĺ": 5612,
      "1935": 5613,
      "ç¶ĵæŃ·": 5614,
      "æĪĲæľ¬": 5615,
      "æŃ¦å¸Ŀ": 5616,
      "çĶ«": 5617,
      "æł¡éķ·": 5618,
      "åľ¨ä¸ŃåĽ½": 5619,
      "åħ¬åı¸çļĦ": 5620,
      "yst": 5621,
      "åľ¨é¦Ļæ¸¯": 5622,
      "çŁ³åĿĳ": 5623,
      "è·¯åı£": 5624,
      "ick": 5625,
      "æĺ¯ä½įæĸ¼": 5626,
      "è»Łé«Ķ": 5627,
      "hant": 5628,
      "Ġéĺ¿": 5629,
      "æĮĩå®ļ": 5630,
      "ä¿±ä¹Ĳ": 5631,
      "çº¯": 5632,
      "åĩıå°ĳ": 5633,
      "åĬłåĪ©": 5634,
      "1943": 5635,
      "çĥ§": 5636,
      "å©ļå§»": 5637,
      "æ£ī": 5638,
      "1971": 5639,
      "æ±¤": 5640,
      "1942": 5641,
      "è´Ĭ": 5642,
      "ä¹Łå°±æĺ¯": 5643,
      "å°Īæ¥Ń": 5644,
      "åİŁå§ĭ": 5645,
      "å°¼åħĭ": 5646,
      "åĺīç¾©": 5647,
      "åĦ²": 5648,
      "ç¢Ł": 5649,
      "èĦļ": 5650,
      "è´ı": 5651,
      "ä»¥å¾Į": 5652,
      "åĽ¾ä¹¦é¦Ĩ": 5653,
      "çĬ¶æĢģ": 5654,
      "éĺ¶æ®µ": 5655,
      "ç»ıå¸¸": 5656,
      "æĹ¥åĨĽ": 5657,
      "æºĲèĩª": 5658,
      "éĮ¦æ¨Ļ": 5659,
      "ä¿®æŃ£": 5660,
      "ç®Ģç§°": 5661,
      "æŃ¡è¿İ": 5662,
      "å¿½": 5663,
      "æĬ±": 5664,
      "ock": 5665,
      "è®¯": 5666,
      "1974": 5667,
      "å¨ĥ": 5668,
      "åłª": 5669,
      "éķ¿æ±Ł": 5670,
      "åĲ¨": 5671,
      "ç©ºè»į": 5672,
      "è®¾æĸ½": 5673,
      "ä¸ĢåĪĩ": 5674,
      "æĸ¯å¡Ķ": 5675,
      "left": 5676,
      "çĻ¼åĶ®": 5677,
      "120": 5678,
      "rit": 5679,
      "å®¶äºº": 5680,
      "çĻ¼å°Ħ": 5681,
      "use": 5682,
      "å¤§çº¦": 5683,
      "æĸ¤": 5684,
      "å§Ķä¹¦è®°": 5685,
      "æĹħå®¢éĲµéģĵ": 5686,
      "åĵ²åŃ¦": 5687,
      "AS": 5688,
      "åĪĨè£Ĥ": 5689,
      "æ³ķå®ĺ": 5690,
      "è§£æķ£": 5691,
      "ics": 5692,
      "èķ¾": 5693,
      "å¼ıçļĦ": 5694,
      "ä¸¦æ²Ĵæľī": 5695,
      "per": 5696,
      "è¶³çĲĥéģĭåĭķåĵ¡": 5697,
      "æ²ĸ": 5698,
      "éĩĳæĽ²": 5699,
      "ä»ĸä»¬çļĦ": 5700,
      "å¼ķåħ¥": 5701,
      "Ġ2004": 5702,
      "å§ľ": 5703,
      "èĥ½æºĲ": 5704,
      "Ġ)": 5705,
      "ier": 5706,
      "CO": 5707,
      "åĪ¶çļĦ": 5708,
      "ç¶ľåĲĪ": 5709,
      "æ°¢": 5710,
      "çĲĨè§£": 5711,
      "åĩºéģĵ": 5712,
      "éĤª": 5713,
      "çĶ·æ¼Ķåĵ¡": 5714,
      "ç´ĭ": 5715,
      "èĻ«": 5716,
      "æľŃ": 5717,
      "è£ı": 5718,
      "æ¿ĥ": 5719,
      "çĽ£çĿ£": 5720,
      "å¸¸è¦ĭ": 5721,
      "se": 5722,
      "æ¼Ķå¥ı": 5723,
      "æ¯ıä¸ª": 5724,
      "æĿĨ": 5725,
      "å·ŀåºľ": 5726,
      "åĪºåı²": 5727,
      "åħ«å¹´": 5728,
      "ç§ĺä¹¦": 5729,
      "çĶ¢æ¥Ń": 5730,
      "é¡ĮæĿĲ": 5731,
      "åľĭåħ§": 5732,
      "ç§ģäºº": 5733,
      "(,)": 5734,
      "ä¸įæĸ·": 5735,
      "åĥ¹åĢ¼": 5736,
      "å¹´åĪĿ": 5737,
      "åĪĨç±»": 5738,
      "è´Ī": 5739,
      "é©¬åħĭ": 5740,
      "çİ²": 5741,
      "çļĦå½±éŁ¿": 5742,
      "è³ĩæºĲ": 5743,
      "çļĦæķħäºĭ": 5744,
      "è¿ĻéĩĮ": 5745,
      "å·¡å¤©": 5746,
      "ä¾ĿçĦ¶": 5747,
      "æĹħè¡Į": 5748,
      "åĮ»åŃ¦": 5749,
      "åľ°åĲį": 5750,
      "é¦®": 5751,
      "æĽ¾ç»ı": 5752,
      "åĪ¶å®ļ": 5753,
      "æļ¨": 5754,
      "au": 5755,
      "çīł": 5756,
      "ãĥĥ": 5757,
      "åĪ©çĽĬ": 5758,
      "ĠCol": 5759,
      "åŃ¦ä½į": 5760,
      "åħ¬äº¤": 5761,
      "éķ·æľŁ": 5762,
      "éĿĴå²Ľ": 5763,
      "è»Ĭè¼Ľ": 5764,
      "æģŃ": 5765,
      "æ¦®èŃ½": 5766,
      "æĥŁ": 5767,
      "çļĦæĥħåĨµ": 5768,
      "è°ĵ": 5769,
      "çķ¶éģ¸": 5770,
      "è§¦": 5771,
      "åŁºäºİ": 5772,
      "åįĬå²Ľ": 5773,
      "æĻļä¸Ĭ": 5774,
      "åį°å°¼": 5775,
      "éĢĢåĩº": 5776,
      "çĶ±æŃ¤": 5777,
      "æ¡£": 5778,
      "åĬ«": 5779,
      "Ġ2010": 5780,
      "çļĦæ°´": 5781,
      "åĿª": 5782,
      "å»ºç«ĭäºĨ": 5783,
      "åħ¥åı£": 5784,
      "æĿ±æĹ¥æľ¬": 5785,
      "å°Ĩåħ¶": 5786,
      "åĨ¬åŃ£": 5787,
      "çŁ©": 5788,
      "æ¢¨": 5789,
      "æŃ¦è£ħ": 5790,
      "1961": 5791,
      "ä¸»å¼µ": 5792,
      "åı¬å¼Ģ": 5793,
      "èĲ§": 5794,
      "åĩĿ": 5795,
      "åı¯éģĶ": 5796,
      "åĽ½çļĦ": 5797,
      "å´©": 5798,
      "åľ¨ä¸Ģ": 5799,
      "éĸ©": 5800,
      "è³Ī": 5801,
      "èį·åħ°": 5802,
      "ä¹Łæľĥ": 5803,
      "æŃĩ": 5804,
      "æī¹è¯Ħ": 5805,
      "æĹ©å¹´": 5806,
      "LE": 5807,
      "åĪĨéħį": 5808,
      "çķĻä¸ĭ": 5809,
      "åĬªåĬĽ": 5810,
      "æĭĴç»Ŀ": 5811,
      "åĵĪå°Ķ": 5812,
      "éĻ¨çŁ³åĿĳ": 5813,
      "å®Įå·¥": 5814,
      "ç¢§": 5815,
      "æ¹ĸæ³Ĭ": 5816,
      "æ¸¬è©¦": 5817,
      "1962": 5818,
      "æĶĿå½±": 5819,
      "äºĨè§£": 5820,
      "åĲŀ": 5821,
      "éĢļä¿¡": 5822,
      "æĮģç»Ń": 5823,
      "æłª": 5824,
      "æľīæĻĤ": 5825,
      "ä¸įåĪ°": 5826,
      "æĩīè©²": 5827,
      "åĲ¸æĶ¶": 5828,
      "çī¹å®ļ": 5829,
      "1957": 5830,
      "ç»ª": 5831,
      "èĪŁ": 5832,
      "Ġ16": 5833,
      "æ´¾éģ£": 5834,
      "é£ŁçĶ¨": 5835,
      "æľºæ¢°": 5836,
      "ç¬¬ä¸Ģä¸ª": 5837,
      "éĽĻæĸ¹": 5838,
      "äººæ¬¡": 5839,
      "äºĭæ¥Ń": 5840,
      "çĽ¸å½ĵ": 5841,
      "Ġ2002": 5842,
      "å»ºè®®": 5843,
      "èĻķæĸ¼": 5844,
      "æĬ¼": 5845,
      "è³ĩæł¼": 5846,
      "åħģè®¸": 5847,
      "çłĶç©¶éĻ¢": 5848,
      "é¾Ħ": 5849,
      "çļĦå½±åĵį": 5850,
      "åįģå¤§": 5851,
      "åĬ³åĬ¨": 5852,
      "åĽ¢ä½ĵ": 5853,
      "org": 5854,
      "çļĦåĲįåŃĹ": 5855,
      "äº¥": 5856,
      "ç»§æī¿": 5857,
      "æķĻå¸«": 5858,
      "çļĦåĲĮ": 5859,
      "ä½ľæĪĺ": 5860,
      "æĮªå¨ģ": 5861,
      "æĪ°å£«": 5862,
      "ä¿®å»º": 5863,
      "æł¼èĺŃ": 5864,
      "è¦ıåĬĥ": 5865,
      "æĵħ": 5866,
      "çļĦç¥ŀ": 5867,
      "è¡ĮæĶ¿éĻ¢": 5868,
      "èĢĮæĪĲ": 5869,
      "ax": 5870,
      "å¹´å¾Į": 5871,
      "ä¸įæĸŃ": 5872,
      "è¡Ŀçªģ": 5873,
      "æ¯įäº²": 5874,
      "æĸĲ": 5875,
      "ä»İèĢĮ": 5876,
      "èľľ": 5877,
      "æĶ¹åıĺ": 5878,
      "éĽį": 5879,
      "çĶ¨ä½ľ": 5880,
      "åİĨåı²ä¸Ĭ": 5881,
      "æķĻèĤ²éĥ¨": 5882,
      "ID": 5883,
      "éłĴçįİ": 5884,
      "å¹³éĿ¢": 5885,
      "çŁ¥è¯Ĩ": 5886,
      "ç¬¬ä¹Ŀ": 5887,
      "å»£åł´": 5888,
      "ä¿±ä¹Ĳéĥ¨": 5889,
      "åĭģ": 5890,
      "è¿ĽæĶ»": 5891,
      "çı¾è±¡": 5892,
      "éĢ®": 5893,
      "åĳ¨å¹´": 5894,
      "è¯Ħè®º": 5895,
      "è¨İè«ĸ": 5896,
      "èµ·ä¹ī": 5897,
      "æ·¡æ°´": 5898,
      "åıĥè³½": 5899,
      "äºīè®®": 5900,
      "Ġ1999": 5901,
      "è¯Ħä»·": 5902,
      "çĶ¨éĢĶ": 5903,
      "åĲ«æľī": 5904,
      "çŃ¹": 5905,
      "æľĪçļĦ": 5906,
      "å®°": 5907,
      "-{}-": 5908,
      "éĢ¼": 5909,
      "æĸ¯åħĭ": 5910,
      "æĿŃå·ŀ": 5911,
      "åĮĹæµ·éģĵ": 5912,
      "è½Ł": 5913,
      "æĬķè³ĩ": 5914,
      "æĹ¬": 5915,
      "å®ŀæĸ½": 5916,
      "å»£æ³Ľ": 5917,
      "å¤ĸçļĦ": 5918,
      "ç©Ĩæĸ¯": 5919,
      "Ġåį¡": 5920,
      "1951": 5921,
      "å¹´è¼ķ": 5922,
      "è§£éĩĬ": 5923,
      "å¤§å°ı": 5924,
      "æľĿå»·": 5925,
      "ç´Ľ": 5926,
      "çłĤ": 5927,
      "æĶ¶è¦ĸ": 5928,
      "çļĦæĢ§": 5929,
      "æ´¾åĩº": 5930,
      "Ġpro": 5931,
      "å¥¥æŀĹåĮ¹åħĭè¿ĲåĬ¨ä¼ļ": 5932,
      "æĸ¯æĭīå¤«": 5933,
      "è®·": 5934,
      "åįĹæ¥µ": 5935,
      "åĬłå·ŀ": 5936,
      "è½´": 5937,
      "å¸Ĥç«ĭ": 5938,
      "åĩĨå¤ĩ": 5939,
      "éĶĭ": 5940,
      "è´¾": 5941,
      "äºĭåĬ¡": 5942,
      "1927": 5943,
      "èĻĳ": 5944,
      "æ©Łæ¢°": 5945,
      "æĬĳ": 5946,
      "å®ĺåĵ¡": 5947,
      "1963": 5948,
      "1933": 5949,
      "åĭ¢åĬĽ": 5950,
      "åİĺ": 5951,
      "å·«": 5952,
      "èµ°åĲĳ": 5953,
      "åŃķ": 5954,
      "éķ¿æ²Ļ": 5955,
      "æĻĵ": 5956,
      "æ¯ıå¹³æĸ¹åħ¬éĩĮ": 5957,
      "å¤§å¤ļæķ¸": 5958,
      "æĹħéģĬ": 5959,
      "åĽ½ç«ĭ": 5960,
      "åĨĪ": 5961,
      "èĭ¯": 5962,
      "ãĥ¼ãĥ": 5963,
      "EN": 5964,
      "çĪµå£«": 5965,
      "æĺ¥ç§ĭ": 5966,
      "éĢ¸": 5967,
      "ä¸Ńè¢«": 5968,
      "èİ·å¾ĹäºĨ": 5969,
      "æĨĳ": 5970,
      "è§Ģçľ¾": 5971,
      "å°ļæľª": 5972,
      "çªģçĦ¶": 5973,
      "æ¼ł": 5974,
      "ä¸Ĭæľī": 5975,
      "é³´": 5976,
      "Ġe": 5977,
      "è¿ŀç»Ń": 5978,
      "Ġ2013": 5979,
      "è¥¿åĮĹéĥ¨": 5980,
      "æľ¬åľŁ": 5981,
      "ä½Ķéłĺ": 5982,
      "æľ¬äºº": 5983,
      "åĭĭç«ł": 5984,
      "ä¿Ŀéļľ": 5985,
      "åı¸é¦¬": 5986,
      "pl": 5987,
      "ä¼Ĭæĸ¯åħ°": 5988,
      "çĶ¨ä¾Ĩ": 5989,
      "è®¿éĹ®": 5990,
      "ç¥ł": 5991,
      "å¤ªéĥİ": 5992,
      "1932": 5993,
      "çĦ¡ç¶«éĽ»è¦ĸ": 5994,
      "çŁĽ": 5995,
      "ä»ĭç´¹": 5996,
      "çĲīçĲĥ": 5997,
      "åĴĸ": 5998,
      "UN": 5999,
      "ç¾İè¡ĵ": 6000,
      "äºĴçĽ¸": 6001,
      "çİ»çĴĥ": 6002,
      "åĿĽ": 6003,
      "ä¸ĬåįĪ": 6004,
      "æ³¢èĺŃ": 6005,
      "è´¨éĩı": 6006,
      "æĹ¥æ²»": 6007,
      "åĪĨä½Ī": 6008,
      "åĪĹåħ¥": 6009,
      "åħ¼ä»»": 6010,
      "çĽĨ": 6011,
      "å«Į": 6012,
      "å»ºæĸ¼": 6013,
      "Ġ15": 6014,
      "å£ĺ": 6015,
      "è¨»éĩĭ": 6016,
      "å·¢": 6017,
      "æĴ¤éĶĢ": 6018,
      "èģ¯åĲĪåľĭ": 6019,
      "éģ¼": 6020,
      "å»£å·ŀ": 6021,
      "å°ĳæķ¸": 6022,
      "å¤§éĺª": 6023,
      "åħ§éĥ¨": 6024,
      "èĴĭ": 6025,
      "è²ŀ": 6026,
      "åĪĨå¸ĥäºİ": 6027,
      "çģĮ": 6028,
      "AL": 6029,
      "æķ¸éĩı": 6030,
      "é¦¬ä¾Ĩè¥¿äºŀ": 6031,
      "åĽ½éĺ²": 6032,
      "å¹´çĶ±": 6033,
      "ll": 6034,
      "èĤĮ": 6035,
      "è¿Ľä¸ĢæŃ¥": 6036,
      "æĺ¯æĹ¥æľ¬": 6037,
      "è±«": 6038,
      "å®ŀè¡Į": 6039,
      "çĶŁæĪĲ": 6040,
      "éĤĢè«ĭ": 6041,
      "ä¸Ĭä¸ĭ": 6042,
      "æ°ĳéĸĵ": 6043,
      "ãĢľ": 6044,
      "çĽľ": 6045,
      "éħ¶": 6046,
      "åĲĮæł·": 6047,
      "é¦¬åħĭ": 6048,
      "åķĨåĵģ": 6049,
      "çļĦæĸ¹æ³ķ": 6050,
      "å°ıåŃ¦": 6051,
      "èŃ¦æĸ¹": 6052,
      "çļĦæĶ¯æĮģ": 6053,
      "ç¼ĵ": 6054,
      "1934": 6055,
      "SS": 6056,
      "æ·º": 6057,
      "å¤§çįİ": 6058,
      "èµĽåŃ£": 6059,
      "å¹¿è¥¿": 6060,
      "ood": 6061,
      "åĲ¹": 6062,
      "ç»ķ": 6063,
      "ä¸Ĭå¸Ĥ": 6064,
      "æ©ŁåĻ¨": 6065,
      "èĭ±æł¼åħ°": 6066,
      "åıī": 6067,
      "æ¸¯åı£": 6068,
      "èµ·æĿ¥": 6069,
      "ç¶Ńäºŀ": 6070,
      "çªģçł´": 6071,
      "ç±»åŀĭ": 6072,
      "æľĢè¿ĳ": 6073,
      "åĢ¡": 6074,
      "ç¾İè»į": 6075,
      "å¡ŀçĪ¾": 6076,
      "è°ĥæķ´": 6077,
      "æ±Ģ": 6078,
      "åĬ¨çĶ»": 6079,
      "æ´Ľåħĭ": 6080,
      "ç«ĭåį³": 6081,
      "color": 6082,
      "åľ°åįĢçļĦ": 6083,
      "æŃ¥åħµ": 6084,
      "ç²ĴåŃĲ": 6085,
      "æ°ĳçľ¾": 6086,
      "åħĪå¾Į": 6087,
      "èŃīæĺİ": 6088,
      "ç¬¬ä¸ĢåĢĭ": 6089,
      "1931": 6090,
      "åŃ¦æľ¯": 6091,
      "ç¨Ģ": 6092,
      "æ·ĳ": 6093,
      "å¾¡åı²": 6094,
      "âĢ»": 6095,
      "ä¿ł": 6096,
      "å¼Łå¼Ł": 6097,
      "äºĨä¸Ģä¸ª": 6098,
      "æİĺ": 6099,
      "ãģ¨": 6100,
      "âĢĺ": 6101,
      "å²Ĺ": 6102,
      "æīģ": 6103,
      "éĩĳå±±": 6104,
      "å¾Īå¤§": 6105,
      "ç¿»è¯ĳ": 6106,
      "éĺ»æŃ¢": 6107,
      "åħ¬å®ī": 6108,
      "æĬļ": 6109,
      "!!": 6110,
      "æľĢä½İ": 6111,
      "éģ¸åįĢ": 6112,
      "å¤©æĸĩåı°": 6113,
      "æ®¼": 6114,
      "éķ¿çļĦ": 6115,
      "è¨ŃåĤĻ": 6116,
      "æĸ¹ç¨ĭ": 6117,
      "åĬłæĭī": 6118,
      "è¥Ħ": 6119,
      "åŁºæĸ¼": 6120,
      "èģĶç³»": 6121,
      "çļĦç¬¬": 6122,
      "è¥¿æĸ¯": 6123,
      "åı¯ä»¥åľ¨": 6124,
      "æĺ¯æ³ķåĽ½": 6125,
      "èĢķ": 6126,
      "æĪĲå°±": 6127,
      "æīĭæ®µ": 6128,
      "ubl": 6129,
      "ĠPress": 6130,
      "éĨ«çĻĤ": 6131,
      "form": 6132,
      "ä¸Ģåº§": 6133,
      "éĨĩ": 6134,
      "EC": 6135,
      "éĻª": 6136,
      "è¾¨": 6137,
      "ç¤Ļ": 6138,
      "ä¸ŃåİŁ": 6139,
      "æģĭ": 6140,
      "ĠSch": 6141,
      "ç¼ħ": 6142,
      "èĢĮéĿŀ": 6143,
      "èħĶ": 6144,
      "åīµç«ĭ": 6145,
      "Ġ2012": 6146,
      "åľ°å½¢": 6147,
      "çī¹å¾ģ": 6148,
      "åıªè¦ģ": 6149,
      "éĩĿå°į": 6150,
      "land": 6151,
      "å¥İ": 6152,
      "ä»¥ä¸ĬçļĦ": 6153,
      "ä»»æľŁ": 6154,
      "èªįçĤºæĺ¯": 6155,
      "éĤĳ": 6156,
      "ton": 6157,
      "éħ·": 6158,
      "æļĸ": 6159,
      "omm": 6160,
      "IT": 6161,
      "åħĭéĩĮæĸ¯": 6162,
      "æĺ¯ä¸Ģä½į": 6163,
      "ä¸ľè¥¿": 6164,
      "åĲĦèĩª": 6165,
      "æī¿è®¤": 6166,
      "è¡Ķ": 6167,
      "çģ«æĺŁ": 6168,
      "ä¸¦éĿŀ": 6169,
      "Un": 6170,
      "DVD": 6171,
      "ä¹Ķæ²»": 6172,
      "åķ¡": 6173,
      "Cl": 6174,
      "å¤§äºĭ": 6175,
      "æĽ´æĸ°": 6176,
      "ç¸½éĥ¨": 6177,
      "çŁ¥ç¸£": 6178,
      "æķĺ": 6179,
      "æĨ²æ³ķ": 6180,
      "å°¹": 6181,
      "ç¾½æ¯ĽçĲĥ": 6182,
      "åıĻ": 6183,
      "å¾·çļĦ": 6184,
      "ä»¥åĲİ": 6185,
      "Ġä¸ī": 6186,
      "å¤ļæķ¸": 6187,
      "å·²æľī": 6188,
      "æĦĽçĪ¾": 6189,
      "éķ¿æľŁ": 6190,
      "å°¤åħ¶æĺ¯": 6191,
      "è¹Ł": 6192,
      "äº¿åħĥ": 6193,
      "ä»¥åĮĹ": 6194,
      "åľĭéĺ²": 6195,
      "ç§ĳçļĦ": 6196,
      "Ġé«ĺ": 6197,
      "åĨ³èµĽ": 6198,
      "çļĦä¸į": 6199,
      "äººæķ¸": 6200,
      "å¤ļåĢĭ": 6201,
      "å¯¹è±¡": 6202,
      "çļĦä¸Ģç§į": 6203,
      "Ġalign": 6204,
      "æĢķ": 6205,
      "éĺ®": 6206,
      "çĺ¤": 6207,
      "æ«»": 6208,
      "isc": 6209,
      "å¿ĺ": 6210,
      "çļĦæĶ¿æ²»": 6211,
      "å£®": 6212,
      "èĤĸ": 6213,
      "å¤±æķĹ": 6214,
      "åİ¥": 6215,
      "éĻĦè¿ĳçļĦ": 6216,
      "åİŁä½ıæ°ĳ": 6217,
      "åĦ¿ç«¥": 6218,
      "éĤģ": 6219,
      "è¾²æ¥Ń": 6220,
      "yn": 6221,
      "å¤§è¥¿æ´ĭ": 6222,
      "éĮ¦æ¨Ļè³½": 6223,
      "AP": 6224,
      "ĠåĴĮ": 6225,
      "ä¸ŀ": 6226,
      "äº¦æĺ¯": 6227,
      "%;": 6228,
      "ath": 6229,
      "ime": 6230,
      "æľ¬åľ°": 6231,
      "äº¬éĥ½": 6232,
      "åľ¨ç¾İåľĭ": 6233,
      "éĢļéģĵ": 6234,
      "æŁ¥çĲĨ": 6235,
      "æŃ¤æĻĤ": 6236,
      "æķ¸åŃ¸": 6237,
      "æĶ¿é»¨": 6238,
      "æł¡åĮº": 6239,
      "éĢ²æĶ»": 6240,
      "ä¸ºäºº": 6241,
      "éĦīè©¦": 6242,
      "åĸ¬æ²»": 6243,
      "ä¸´æĹ¶": 6244,
      "round": 6245,
      "æ°£è±¡": 6246,
      "éĢ®æįķ": 6247,
      "åĸª": 6248,
      "è»¸": 6249,
      "åıĪç§°": 6250,
      "1928": 6251,
      "å±Ī": 6252,
      "åįĸ": 6253,
      "çĲĥåĳĺ": 6254,
      "èµ·ä¾Ĩ": 6255,
      "è¸ª": 6256,
      "çŁ¥èŃĺ": 6257,
      "èħĵ": 6258,
      "ç©Ĩæĸ¯æŀĹ": 6259,
      "çł´åĿı": 6260,
      "ame": 6261,
      "600": 6262,
      "ä»ĬæĹ¥": 6263,
      "åĺ´": 6264,
      "é½Ĵ": 6265,
      "æłĹ": 6266,
      "åįłæĢ»äººåı£": 6267,
      "æĮĩç¤º": 6268,
      "æĽ¸ç±į": 6269,
      "çīµ": 6270,
      "åīª": 6271,
      "èĥľåĪ©": 6272,
      "æ§ĭéĢł": 6273,
      "è´¢æĶ¿": 6274,
      "èı²å¾ĭè³ĵ": 6275,
      "èªªæ³ķ": 6276,
      "äºĮäºº": 6277,
      "èĥ¶": 6278,
      "è¨Ńå®ļ": 6279,
      "ç¦ıå·ŀ": 6280,
      "åĬ©çĲĨ": 6281,
      "ãĢĭ)": 6282,
      "æĶ¯æµģ": 6283,
      "æ¬ĬåĬĽ": 6284,
      "æ°ĳä¸»é»¨": 6285,
      "iet": 6286,
      "æľ¬ç·ļ": 6287,
      "çĶľ": 6288,
      "éĢļçĶ¨": 6289,
      "èºį": 6290,
      "ç»ĵåĲĪ": 6291,
      "å¹´å¤ıåŃ£å¥§æŀĹåĮ¹åħĭéģĭåĭķæľĥ": 6292,
      "ç¢©": 6293,
      "ä¸Īå¤«": 6294,
      "åĪ°è¾¾": 6295,
      "ç·©": 6296,
      "rans": 6297,
      "çī¹å¾µ": 6298,
      "æ·ĺ": 6299,
      "çĭ±": 6300,
      "ase": 6301,
      "åįģä¸ĥ": 6302,
      "çĦ¡äºº": 6303,
      "å®Ľ": 6304,
      "åķĨäºº": 6305,
      "åįµ": 6306,
      "å§ĳ": 6307,
      "AK": 6308,
      "æĹıçļĦ": 6309,
      "IV": 6310,
      "å¤ªåĲİ": 6311,
      "Ġ2003": 6312,
      "åīµéĢł": 6313,
      "ãĢĳ": 6314,
      "æ¬¡å¹´": 6315,
      "èı¯äºº": 6316,
      "æİ¥æĶ¶": 6317,
      "ãĢĲ": 6318,
      "é«ĺçº§": 6319,
      "çĵ¶": 6320,
      "1912": 6321,
      "æİĴè¡Į": 6322,
      "åį«çĶŁ": 6323,
      "æłĩå¿Ĺ": 6324,
      "ç§»åĭķ": 6325,
      "åĲ§": 6326,
      "ç²®": 6327,
      "çĶ¨æĿ¥": 6328,
      "åģľéĿł": 6329,
      "ode": 6330,
      "ä»£è¡¨å¤§ä¼ļ": 6331,
      "è¡ĽçĶŁ": 6332,
      "é´»": 6333,
      "æļ´åĬĽ": 6334,
      "æĸ°åĮĹ": 6335,
      "åī¯ä¸»ä»»": 6336,
      "æ¶Īå¤±": 6337,
      "æģ°": 6338,
      "åį¡æĭī": 6339,
      "èĢĮä¸įæĺ¯": 6340,
      "å¤©åłĤ": 6341,
      "éį¾": 6342,
      "åħļåĳĺ": 6343,
      "éĬľ": 6344,
      "å¿ħè¦ģ": 6345,
      "å¾¹": 6346,
      "è¢ĭ": 6347,
      "è©¹å§Ĩæĸ¯": 6348,
      "å¥¥æĸ¯": 6349,
      "é·¹": 6350,
      "ç¿¡": 6351,
      "åĵ²åŃ¸": 6352,
      "éĽŀ": 6353,
      "æİ¨åĭķ": 6354,
      "åīĬ": 6355,
      "ä»¥åįĹ": 6356,
      "éºµ": 6357,
      "å¤©ä½¿": 6358,
      "çĵ·": 6359,
      "orn": 6360,
      "åĻ¨çļĦ": 6361,
      "æŃ»æĸ¼": 6362,
      "æĪ²åĬĩ": 6363,
      "å°ıåŀĭ": 6364,
      "æ½Ķ": 6365,
      "çĶ³è«ĭ": 6366,
      "åľ¨éĢĻ": 6367,
      "æĤł": 6368,
      "åİŁåĲį": 6369,
      "ãĤ·": 6370,
      "ç½°": 6371,
      "ä¼Ĭæĭīåħĭ": 6372,
      "éĬ·åĶ®": 6373,
      "æ±Ŀ": 6374,
      "æľ¬ä½ľ": 6375,
      "åħ§éĸ£": 6376,
      "éĤ¨": 6377,
      "æĮĳæĪ°": 6378,
      "è¹Ī": 6379,
      "æº¯": 6380,
      "pr": 6381,
      "çµ¦äºĪ": 6382,
      "ystem": 6383,
      "åħ¶å¯¦": 6384,
      "å®ĥæĺ¯": 6385,
      "å»ºç¯īçī©": 6386,
      "åŁİéķĩ": 6387,
      "æĲĸ": 6388,
      "ç¥¨æĪ¿": 6389,
      "å¿Ļ": 6390,
      "ç¤¾åįĢ": 6391,
      "èĦħ": 6392,
      "ä¸Ģå®¶": 6393,
      "æĽī": 6394,
      "åıįæĺł": 6395,
      "ä¸ŃæŃ£": 6396,
      "çİ°è±¡": 6397,
      "åīįèº«": 6398,
      "åıĤè°ĭ": 6399,
      "èĩªåĬ¨": 6400,
      "è´¯": 6401,
      "éĩıåŃĲ": 6402,
      "æĶ¿åįı": 6403,
      "çħĻ": 6404,
      "ä¾Ĩèªª": 6405,
      "ç«ĭæ³ķæľĥ": 6406,
      "éī´": 6407,
      "å¯®": 6408,
      "æºĿ": 6409,
      "arl": 6410,
      "ãģĹ": 6411,
      "æķ¸ä½į": 6412,
      "å¯ĵ": 6413,
      "ãĤ¸": 6414,
      "äººåı£å¯Ĩåº¦æ¯ıå¹³æĸ¹åħ¬éĩĮ": 6415,
      "æ´ĽæĿī": 6416,
      "æĵ¾": 6417,
      "æī©å±ķ": 6418,
      "è¡¨è¾¾": 6419,
      "çīĨ": 6420,
      "åĮĹç¾İ": 6421,
      "çµĲåĲĪ": 6422,
      "åį¸": 6423,
      "åħ¸ç¦®": 6424,
      "åĨ²çªģ": 6425,
      "æĦıå¤ĸ": 6426,
      "åĬŀåħ¬å®¤": 6427,
      "ç¿¡ç¿ł": 6428,
      "å¥³çİĭ": 6429,
      "ĠComp": 6430,
      "æĦĽçĪ¾èĺŃ": 6431,
      "çĲª": 6432,
      "çģ¯": 6433,
      "ãģŁ": 6434,
      "æĽ¹æĵį": 6435,
      "ĠCon": 6436,
      "è¨º": 6437,
      "åĭķä½ľ": 6438,
      "åĲįåĸ®": 6439,
      "ition": 6440,
      "é¢Ĩè¢ĸ": 6441,
      "ä¸ĵå®¶": 6442,
      "è§ĤçĤ¹": 6443,
      "Ġé¦Ļæ¸¯": 6444,
      "åĽĽå¤§": 6445,
      "çĿ¡": 6446,
      "çķĻåľ¨": 6447,
      "é¢Ĩå¯¼äºº": 6448,
      "æĭĸ": 6449,
      "åľĺéļĬ": 6450,
      "ç¿»èŃ¯": 6451,
      "å·¨å¤§": 6452,
      "çī¹åĭĴ": 6453,
      "æıĲä¾ĽäºĨ": 6454,
      "çĲĨæĥ³": 6455,
      "å®ļå±ħ": 6456,
      "èĻ¹": 6457,
      "éĿłè¿ĳ": 6458,
      "å¤§å¹ħ": 6459,
      "Ar": 6460,
      "ann": 6461,
      "ç·¨è¼¯": 6462,
      "MP": 6463,
      "è®Ńç»ĥ": 6464,
      "çº²": 6465,
      "å¿Ĩ": 6466,
      "éĻ¢æł¡": 6467,
      "ĠMar": 6468,
      "åŁĭ": 6469,
      "çĶŁäºİ": 6470,
      "é¯ī": 6471,
      "éĤ±": 6472,
      "é¸¡": 6473,
      "æľīæĹ¶": 6474,
      "åĿĿ": 6475,
      "å¼ķçĻ¼": 6476,
      "éĢĢä¼ĳ": 6477,
      "éłĺè¢ĸ": 6478,
      "å¤ĸåĽ½": 6479,
      "æĿ±æĸ¹": 6480,
      "æĶ¹åĪ¶": 6481,
      "æ´¾çļĦ": 6482,
      "è¢«è®¤ä¸º": 6483,
      "èĬĴ": 6484,
      "åĸĩ": 6485,
      "åĭµ": 6486,
      "è§Ģå¯Ł": 6487,
      "ç¼ĸè¾ĳ": 6488,
      "æ¨ŀ": 6489,
      "åĻ¶": 6490,
      "éĢ²ä¸ĢæŃ¥": 6491,
      "ames": 6492,
      "äººå·¥": 6493,
      "æĸ°ç«¹": 6494,
      "Sh": 6495,
      "ĠEd": 6496,
      "éĤ®æĶ¿": 6497,
      "å½±åĥı": 6498,
      "ç©©å®ļ": 6499,
      "åľŃ": 6500,
      "å¸¸è§ģ": 6501,
      "åį³ä½į": 6502,
      "ç¯®": 6503,
      "çī¹éĩĮ": 6504,
      "çī¹æĭī": 6505,
      "eng": 6506,
      "æĹ¥æĬ¥": 6507,
      "åį°åĪ·": 6508,
      "æīĢå±¬": 6509,
      "Ġçİĭ": 6510,
      "ä¸ļåĬ¡": 6511,
      "åĴĸåķ¡": 6512,
      "æŃ¤æĹ¶": 6513,
      "éĺ²æŃ¢": 6514,
      "åľ¨ä¸Ń": 6515,
      "IP": 6516,
      "æĬĵ": 6517,
      "æĺİé¡¯": 6518,
      "å¯¦éļĽä¸Ĭ": 6519,
      "ç¶²çµ¡": 6520,
      "åĨħèĴĻåı¤": 6521,
      "èį£èªī": 6522,
      "Ã¼": 6523,
      "ä½ĵæĵį": 6524,
      "Ġ2014": 6525,
      "Ġy": 6526,
      "åŃ¸æľĥ": 6527,
      "text": 6528,
      "Ġä¸ŃåĽ½": 6529,
      "åįĶèŃ°": 6530,
      "è¡ĽæĺŁ": 6531,
      "Ġfrom": 6532,
      "æ»¾": 6533,
      "éķ·å®ĺ": 6534,
      "è³ªéĩı": 6535,
      "æ³ķåħ°": 6536,
      "ç§ģç«ĭ": 6537,
      "æ²¼": 6538,
      "å½»": 6539,
      "åı¸ä»¤éĥ¨": 6540,
      "åľ¨ä»ĸ": 6541,
      "æŀ¢": 6542,
      "æ¼ģ": 6543,
      "ä¸ŃæľŁ": 6544,
      "çĤºä¸Ģ": 6545,
      "ç¤ģ": 6546,
      "800": 6547,
      "å·ŀåĪºåı²": 6548,
      "old": 6549,
      "å¿Į": 6550,
      "éĳĳ": 6551,
      "ä»¥æŃ¤": 6552,
      "éĽĮ": 6553,
      "ç»ıåİĨ": 6554,
      "åįĹæµ·": 6555,
      "ç¢ºå®ļ": 6556,
      "éĸ±è®Ģ": 6557,
      "è©¢": 6558,
      "å¥¥è¿Ĳä¼ļ": 6559,
      "åŃĲå¥³": 6560,
      "æĺĩ": 6561,
      "åĨĢ": 6562,
      "å·²è¢«": 6563,
      "æĿ±äº¬éĥ½": 6564,
      "è¨ĺæĨ¶": 6565,
      "å¾ģæľį": 6566,
      "éĺ¶çº§": 6567,
      "ä¸ĳ": 6568,
      "èµ¢": 6569,
      "èĳµ": 6570,
      "çı¾åł´": 6571,
      "æ°£åĢĻ": 6572,
      "åº¶": 6573,
      "åħ©ç¨®": 6574,
      "ĠRe": 6575,
      "çļĦæĹ¶åĢĻ": 6576,
      "åĲīæŀĹ": 6577,
      "è®°èĢħ": 6578,
      "èªĵ": 6579,
      "çŁ¢": 6580,
      "ç»´å°Ķ": 6581,
      "ree": 6582,
      "çļĦä¸ĢäºĽ": 6583,
      "è¿Ŀ": 6584,
      "åįĹéĿŀ": 6585,
      "åĵª": 6586,
      "ä¿ĿåĬł": 6587,
      "å®ŀéªĮå®¤": 6588,
      "çķĶ": 6589,
      "çĸ«æĥħ": 6590,
      "æħİ": 6591,
      "è©¦åľĸ": 6592,
      "å¾·æĦıå¿Ĺ": 6593,
      "æĭįæĳĦ": 6594,
      "æĪ°éļĬ": 6595,
      "ãģª": 6596,
      "å¾ĹåĪ°äºĨ": 6597,
      "å¥§åľ°åĪ©": 6598,
      "æİĽ": 6599,
      "æķĻç·´": 6600,
      "çĻ¼åĩº": 6601,
      "åĳ¨è¾¹": 6602,
      "å¹¿ä¸ľçľģ": 6603,
      "rop": 6604,
      "è§Ģæ¸¬": 6605,
      "è¿ĩç¨ĭä¸Ń": 6606,
      "è´¤": 6607,
      "éĹ½": 6608,
      "åħĭåħ°": 6609,
      "ç´¢å§Ĩ": 6610,
      "çĮ¶å¤ª": 6611,
      "ET": 6612,
      "æĿ±éĥ¨": 6613,
      "ç¥¿": 6614,
      "ä¸Ĭåįĩ": 6615,
      "è¯ķåĽ¾": 6616,
      "ĠQ": 6617,
      "å¤įæĿĤ": 6618,
      "æĹıç¾¤": 6619,
      "æĸ¯å¤§": 6620,
      "ç¿Į": 6621,
      "åºļ": 6622,
      "å¾ĮæľŁ": 6623,
      "æħ£": 6624,
      "æ±ŁåįĹ": 6625,
      "é¢¨æļ´": 6626,
      "åĢ¾": 6627,
      "éłĺåľŁ": 6628,
      "æłĸ": 6629,
      "æĿĥåĬĽ": 6630,
      "éģĵå¾·": 6631,
      "åºĶè¯¥": 6632,
      "ç®¡çĲĨå±Ģ": 6633,
      "é¥®": 6634,
      "æµ¸": 6635,
      "ä¸Ĭæ³ķèĺŃ": 6636,
      "è¥¿éĩĮ": 6637,
      "å¹¶äºİ": 6638,
      "å»ĸ": 6639,
      "ĠĊĠ": 6640,
      "ä½¿çĶ¨èĢħ": 6641,
      "è¥¿å¤§åįĢ": 6642,
      "ä¸Ĭæ³ķèĺŃè¥¿å¤§åįĢ": 6643,
      "åĩ»è´¥": 6644,
      "è´¡çĮ®": 6645,
      "æŃ»åĪĳ": 6646,
      "ç§ĺæĽ¸": 6647,
      "æ¢µ": 6648,
      "èĸĩ": 6649,
      "æķĻåŃ¦": 6650,
      "å°±è®Ģ": 6651,
      "æķĻå¸Ī": 6652,
      "PC": 6653,
      "çľģåĴĮ": 6654,
      "æ¶Į": 6655,
      "èİ·å¾ĹèĢħ": 6656,
      "åĽĽåįģ": 6657,
      "çĥŃå¸¦": 6658,
      "è¯¦": 6659,
      "æĶ¾æ£Ħ": 6660,
      "ç«ĭæĸ¹": 6661,
      "è¦ıåīĩ": 6662,
      "enn": 6663,
      "æĿ¥è¯´": 6664,
      "Ġ13": 6665,
      "åĪ°çļĦ": 6666,
      "åħĭæĭī": 6667,
      "æĮĤ": 6668,
      "çĻ¼å¸ĥ": 6669,
      "éŁ»": 6670,
      "å½°åĮĸ": 6671,
      "ä¼Ĭæĸ¯èĺŃ": 6672,
      "åĭķåĬĽ": 6673,
      "çķ¶æĻĤçļĦ": 6674,
      "æŃ¤æ¬¡": 6675,
      "å£«å°¼": 6676,
      "ç¨³å®ļ": 6677,
      "åĪĨéĴŁ": 6678,
      "èĪŀè¹Ī": 6679,
      "å¾·æĭī": 6680,
      "åľ¨ç¾İåĽ½": 6681,
      "ä»ĵ": 6682,
      "éĤµ": 6683,
      "åīµè¾¦": 6684,
      "ĊĠĠĠĠ": 6685,
      "ä½įçļĦ": 6686,
      "æ¡Į": 6687,
      "å½¥": 6688,
      "çº¹": 6689,
      "æ±¡æŁĵ": 6690,
      "æģĨæĺŁ": 6691,
      "åĮĹéŃı": 6692,
      "ç®¡è¾ĸ": 6693,
      "å¹¶åħ¥": 6694,
      "éĬĺ": 6695,
      "è¯ķéªĮ": 6696,
      "ube": 6697,
      "éļ¸å±¬æĸ¼": 6698,
      "æīĵç®Ĺ": 6699,
      "å¹´åĪ°": 6700,
      "ãĢī)": 6701,
      "-)": 6702,
      "()ãĢĤ": 6703,
      "åĩºä¾Ĩ": 6704,
      "ä½ĵç³»": 6705,
      "çªģåİ¥": 6706,
      "éĻ·åħ¥": 6707,
      "è¿ªå£«å°¼": 6708,
      "ä¸»åĶ±": 6709,
      "ä¸ŃæľĢ": 6710,
      "ä¸Ģçº§": 6711,
      "é«ĺåİŁ": 6712,
      "èĤ¡ä»½æľīéĻĲåħ¬åı¸": 6713,
      "åľĭéģĵ": 6714,
      "æĺ¯ä¸ĢåĲį": 6715,
      "æ¾Ħ": 6716,
      "æ³°åľĭ": 6717,
      "æĹ¥åł±": 6718,
      "èģ·æ£Ĵ": 6719,
      "ä¸įä¼ļ": 6720,
      "æĸ°åŁİ": 6721,
      "éĺ¿éĩĮ": 6722,
      "ç´ħèī²": 6723,
      "æĪ¿å±ĭ": 6724,
      "éĢļè»Ĭ": 6725,
      "äºŀæŃ·": 6726,
      "éģĭä½ľ": 6727,
      "èģ²éŁ³": 6728,
      "è¯ļ": 6729,
      "çļĦåİŁåĽł": 6730,
      "æĸ¹ä¾¿": 6731,
      "é§ķé§Ľ": 6732,
      "ron": 6733,
      "éĻ¢éķ¿": 6734,
      "ä¼¼ä¹İ": 6735,
      "ä»Ģä¹Ī": 6736,
      "ä¸ĢçĻ¾": 6737,
      "æ¡ĵ": 6738,
      "è±¹": 6739,
      "æĤ£èĢħ": 6740,
      "æ¸ł": 6741,
      "èĩŁ": 6742,
      "Ġ2011": 6743,
      "éľŀ": 6744,
      "åİĺç±³": 6745,
      "ç»Ħå»º": 6746,
      "åĪĨæł¡": 6747,
      "æĦĪ": 6748,
      "æ¯ıåĢĭ": 6749,
      "èĪĮ": 6750,
      "æĢ§è´¨": 6751,
      "çı¾ä»»": 6752,
      "æĽ¸éĻ¢": 6753,
      "å¼·çĥĪ": 6754,
      "å½Į": 6755,
      "é«Ķéķ·": 6756,
      "è¡¨éģĶ": 6757,
      "å®¢éģĭ": 6758,
      "æĶ¶èĹı": 6759,
      "GB": 6760,
      "æĽ´åĲįä¸º": 6761,
      "å¹´åĲİ": 6762,
      "èª¿æķ´": 6763,
      "âĪ": 6764,
      "æ¡Ĳ": 6765,
      "amp": 6766,
      "å¸½": 6767,
      "ict": 6768,
      "å°ĩæľĥ": 6769,
      "1929": 6770,
      "ä¸¦æľª": 6771,
      "å¤ļäºº": 6772,
      "è½¦è¾Ĩ": 6773,
      "åħīç·Ĵ": 6774,
      "Ġ14": 6775,
      "è§ĦåĪĻ": 6776,
      "èĥº": 6777,
      "éĴ¦": 6778,
      "çĸ«èĭĹ": 6779,
      "ome": 6780,
      "æĺ¯ä¸Ģåº§": 6781,
      "ash": 6782,
      "åĪ°éģĶ": 6783,
      "AD": 6784,
      "å¹´éĸĭå§ĭ": 6785,
      "æľĢæĹ©çļĦ": 6786,
      "æĸ¹éĿ¢çļĦ": 6787,
      "èĢĥæħ®": 6788,
      "æĶ¿æ²»å±Ģ": 6789,
      "è¨ªåķı": 6790,
      "çĽ´æĴŃ": 6791,
      "æĢ¡": 6792,
      "å¸¸å¸¸": 6793,
      "åĬĩæľ¬": 6794,
      "ãĥ¬": 6795,
      "åľ¨ä¸Ģèµ·": 6796,
      "ery": 6797,
      "Ġè¥¿": 6798,
      "æ¬ĬåĪ©": 6799,
      "å¥¥åľ°åĪ©": 6800,
      "è¾¦åħ¬": 6801,
      "æī£": 6802,
      "å®īå¨ľ": 6803,
      "éĿ¢å°į": 6804,
      "oun": 6805,
      "çĤŃ": 6806,
      "çº·": 6807,
      "çĻ¼éĽ»": 6808,
      "ä¸¤ç§į": 6809,
      "ail": 6810,
      "ç§©": 6811,
      "çĶŁåŃĺ": 6812,
      "ç»ıèĲ¥": 6813,
      "éĢĢå½¹": 6814,
      "éĥ½åľ¨": 6815,
      "èĢĲ": 6816,
      "ç¾İæľ¯": 6817,
      "çľģçļĦä¸Ģä¸ª": 6818,
      "å¹´åĴĮ": 6819,
      "ä¼łæĴŃ": 6820,
      "de": 6821,
      "æĶ¶éĽĨ": 6822,
      "æ°ĳä¸»åħļ": 6823,
      "åĬłåĪ©ç¦ı": 6824,
      "ãĤĵ": 6825,
      "å¹³è¡¡": 6826,
      "Ġ1998": 6827,
      "å¸¥": 6828,
      "ç»´å¥ĩ": 6829,
      "æľµ": 6830,
      "ç¸£äºº": 6831,
      "æ°¨": 6832,
      "åħĭæŀĹ": 6833,
      "æµ·ä¸Ĭ": 6834,
      "åľ¨éĤ£": 6835,
      "çī©çļĦ": 6836,
      "æĪĲç»©": 6837,
      "æĦıåĳ³": 6838,
      "å¾ĭå¸«": 6839,
      "åĤ¬": 6840,
      "å¹´æĻĤ": 6841,
      "åĪĨæĶ¯": 6842,
      "æĭĺ": 6843,
      "Ġéĩĳ": 6844,
      "æ³ķåºŃ": 6845,
      "é¦ĸä½į": 6846,
      "åľ¨åĮĹäº¬": 6847,
      "ç²µèªŀ": 6848,
      "å¸ĤåĮº": 6849,
      "CP": 6850,
      "åĽĬ": 6851,
      "åº¦ä½¿": 6852,
      "ä»Ģéº¼": 6853,
      "å¤ļç§į": 6854,
      "çļĦæĻĤåĢĻ": 6855,
      "å·®çķ°": 6856,
      "1925": 6857,
      "åĬĽåŃ¦": 6858,
      "åĨľæĿĳ": 6859,
      "æĸ¥": 6860,
      "ãĢĮãĢį": 6861,
      "æķĪåĬĽ": 6862,
      "ä¸Ĭå¸Ŀ": 6863,
      "æĮĸ": 6864,
      "éĨ«çĶŁ": 6865,
      "èĨł": 6866,
      "able": 6867,
      "ä»·åĢ¼": 6868,
      "åį¡å°Ķ": 6869,
      "ĠĠĠĠĠĠĠĠĠĠĠĠĠĠĠĠ": 6870,
      "ãĤ¿": 6871,
      "åı¦æľī": 6872,
      "çĩĥæĸĻ": 6873,
      "åħĭçļĦ": 6874,
      "åºıåĪĹ": 6875,
      "å¸ĤåįĢ": 6876,
      "åħ¨å¸Ĥ": 6877,
      "å¨ģçĪ¾": 6878,
      "åĭĿåĪ©": 6879,
      "åįģäºĮå¹´": 6880,
      "è®¨è®º": 6881,
      ".)": 6882,
      "èĢĥèĻĳ": 6883,
      "Ġ()": 6884,
      "åĲĪåĶ±": 6885,
      "æıĲåıĬ": 6886,
      "çļĦéĥ¨åĪĨ": 6887,
      "è¾ī": 6888,
      "åĮĹå®ĭ": 6889,
      "Ġå¹´": 6890,
      "åİĨä»»": 6891,
      "å»¢éĻ¤": 6892,
      "åŃ¸ç³»": 6893,
      "èĢģå¸«": 6894,
      "æĤŁ": 6895,
      "uk": 6896,
      "çļĦå½¢å¼ı": 6897,
      "æł¼åħ°": 6898,
      "åĬ±": 6899,
      "æĶ¿åħļ": 6900,
      "æĮģæľī": 6901,
      "å¤§éĿ©åĳ½": 6902,
      "å¼ıæľĪåı°": 6903,
      "çįİçīĮå¾Ĺä¸»": 6904,
      "ensis": 6905,
      "ç·¬": 6906,
      "åĽĽä¸ĸ": 6907,
      "ä¹ĭæĪ°": 6908,
      "ley": 6909,
      "æ°Ł": 6910,
      "æĴ«": 6911,
      "åıĮæĸ¹": 6912,
      "å·²çŁ¥": 6913,
      "çĥ·": 6914,
      "ä»¤äºº": 6915,
      "æİ¥è§¸": 6916,
      "åĭŁ": 6917,
      "æĿ±è¥¿": 6918,
      "ä¸ģçĽ®": 6919,
      "çĶµåı°": 6920,
      "äºĶæľĪ": 6921,
      "åĩłä¸ª": 6922,
      "å¤§éĩıçļĦ": 6923,
      "MS": 6924,
      "ux": 6925,
      "åı¤èĢģ": 6926,
      "åı¦ä¸Ģæĸ¹éĿ¢": 6927,
      "æ¹¿": 6928,
      "åĤ³æĴŃ": 6929,
      "ãĢĭãĢĬ": 6930,
      "åįĹèĩ³": 6931,
      "å°įæīĭ": 6932,
      "å··": 6933,
      "å·´èµ«": 6934,
      "é«ĺæł¡": 6935,
      "èıĬ": 6936,
      "èĩªæĪĳ": 6937,
      "çı¾ä»Ĭ": 6938,
      "è®ļ": 6939,
      "å±Ģéķ¿": 6940,
      "ĊĠĠĠ": 6941,
      "éĸĥ": 6942,
      "æĬĦ": 6943,
      "å¸Ĥéķ¿": 6944,
      "æŃ£éĿ¢": 6945,
      "æĿ±æµ·": 6946,
      "ç¦ıåĪ©": 6947,
      "è£Ŀç½®": 6948,
      "ĠPl": 6949,
      "æł¼æĭī": 6950,
      "ä¸ľæĸ¹": 6951,
      "af": 6952,
      "ç§»åĬ¨": 6953,
      "æİł": 6954,
      "åĳ½åĲįçĤº": 6955,
      "ool": 6956,
      "å±±å¸Ĥ": 6957,
      "èº«äº¡": 6958,
      "éŃģ": 6959,
      "ãģĭ": 6960,
      "ins": 6961,
      "è§Ĥå¯Ł": 6962,
      "1926": 6963,
      "æµ·åįĹ": 6964,
      "æĦıæĢĿ": 6965,
      "çŁŃæľŁ": 6966,
      "(;": 6967,
      "åĬłåĵ¥": 6968,
      "ç¥Ĳ": 6969,
      "æ²»çĸĹ": 6970,
      "æ¯ıå¤©": 6971,
      "èĬĿåĬłåĵ¥": 6972,
      "èĦĬ": 6973,
      "å¦¹å¦¹": 6974,
      "åŃĺåľ¨çļĦ": 6975,
      "æĶ¹ç¼ĸ": 6976,
      "æĦıä¹ī": 6977,
      "èģĮåĬ¡": 6978,
      "åħ¶é¤ĺ": 6979,
      "æ±°": 6980,
      "æĺİæĺŁ": 6981,
      "ç±ĥçĲĥ": 6982,
      "å¤Ħäºİ": 6983,
      "æľįå½¹": 6984,
      "è²¡æĶ¿": 6985,
      "ä¹Ŀå·ŀ": 6986,
      "éĢīæīĭ": 6987,
      "æĺİæľĿæĶ¿æ²»äººçī©": 6988,
      "æĻ´": 6989,
      "åħĥæľĿ": 6990,
      "æĪĺçķ¥": 6991,
      "æĬµæĬĹ": 6992,
      "ä½¿åħ¶": 6993,
      "å¨ģèĦħ": 6994,
      "åķŁçĶ¨çļĦ": 6995,
      "æĿĥåĪ©": 6996,
      "çļĦéĹľä¿Ĥ": 6997,
      "å¤§åŃ¦æł¡åıĭ": 6998,
      "æº«åº¦": 6999,
      "åĵĢ": 7000,
      "äººåı£ä¸º": 7001,
      "åħ¶ä¸ŃåĮħæĭ¬": 7002,
      "åĽļ": 7003,
      "çĶŁæĸ¼": 7004,
      "äºĭå¯¦": 7005,
      "å¼·èª¿": 7006,
      "è²´æĹı": 7007,
      "æ¸ħä»£": 7008,
      "GN": 7009,
      "åŃ¸ä½į": 7010,
      "æį·éģĭ": 7011,
      "ä¿¡åı·": 7012,
      "èĺĩæł¼èĺŃ": 7013,
      "éģĹäº§": 7014,
      "çĲĨçĶ±": 7015,
      "èĴ²": 7016,
      "ç¬¬ä¸Ģä½į": 7017,
      "ç¡ķ": 7018,
      "www": 7019,
      "HE": 7020,
      "çļĦåŁİå¸Ĥ": 7021,
      "æĬµéģĶ": 7022,
      "èº«åĪĨ": 7023,
      "å¥³åħĴ": 7024,
      "çĽ¸éĦ°": 7025,
      "é»ĥéĩĳ": 7026,
      "æŃ¦è£Ŀ": 7027,
      "å¥ł": 7028,
      "æĻĤä»»": 7029,
      "ãĤĬ": 7030,
      "é¡ŀåŀĭ": 7031,
      "ç¿¡ç¿łåı°": 7032,
      "çļĦåıį": 7033,
      "å¤§å¤«": 7034,
      "âĢ§": 7035,
      "å¸¸å§Ķ": 7036,
      "è¯´æ³ķ": 7037,
      "ãĤĭ": 7038,
      "åĽĽå·Ŀçľģ": 7039,
      "çŃ¾ç½²": 7040,
      "ĠWorld": 7041,
      "åĦĢå¼ı": 7042,
      "ä¸»é¡ĮæĽ²": 7043,
      "åĬłçĽŁ": 7044,
      "çĽ¸åĲĮçļĦ": 7045,
      "æµĻæ±Łçľģ": 7046,
      "Ġ*": 7047,
      "Ġ20": 7048,
      "ä¸īåľĭ": 7049,
      "å¤±è´¥": 7050,
      "è¾½å®ģ": 7051,
      "æ·±åº¦": 7052,
      "çļĦæĹ¥": 7053,
      "ä¸įè¦ģ": 7054,
      "è´ıå¾Ĺ": 7055,
      "ä½Ĩä»ĸ": 7056,
      "ĠBl": 7057,
      "å®´": 7058,
      "æĶ¹åĲįçĤº": 7059,
      "ç«¶çĪŃ": 7060,
      "pp": 7061,
      "çļĦè§Ĵèī²": 7062,
      "å¹´ä¸ĸçķĮ": 7063,
      "çĻ¼æĺİ": 7064,
      "å·¥å»ł": 7065,
      "é¦ĸå¸Ń": 7066,
      "æĦıèŃĺ": 7067,
      "å¤§æŃ£": 7068,
      "è´º": 7069,
      "èģ²åĦª": 7070,
      "èĥ¡åĲĮ": 7071,
      "æ¼«çĶ»": 7072,
      "åĢĻéģ¸": 7073,
      "ä»£çłģ": 7074,
      "åı¸é©¬": 7075,
      "çĻ»ä¸Ĭ": 7076,
      "è³½åŃ£": 7077,
      "èĩºåĮĹå¸Ĥ": 7078,
      "æĶ¯ä»ĺ": 7079,
      "åĲįäºº": 7080,
      "ĠHist": 7081,
      "æ®·": 7082,
      "æ¡Ĩ": 7083,
      "äº¤æµģéģĵ": 7084,
      "110": 7085,
      "çĲĨæŁ¥": 7086,
      "è·ĥ": 7087,
      "æ¼ı": 7088,
      "åįģæľĪ": 7089,
      "ç¤ºå¨ģ": 7090,
      "è§Ĵåº¦": 7091,
      "å®¢è¿Ĳ": 7092,
      "å¥³æŃĮæīĭ": 7093,
      "åĪĽåĬŀ": 7094,
      "ä¿ĦåĽ½": 7095,
      "çļĦåıĳå±ķ": 7096,
      "ä¸ĭä¸Ģ": 7097,
      "æľĢé«ĺçļĦ": 7098,
      "éĩĩåıĸ": 7099,
      "ild": 7100,
      "è·¯æ®µ": 7101,
      "éĩįéĩı": 7102,
      "æķ¸åŃĹ": 7103,
      "å¾ŀäºĭ": 7104,
      "åĪĽéĢł": 7105,
      "åĩºåĶ®": 7106,
      "ans": 7107,
      "ç¦Ħ": 7108,
      "çĤºæŃ¢": 7109,
      "æıĲåĩºäºĨ": 7110,
      "äººæŃ»äº¡": 7111,
      "ç®Ģåįķ": 7112,
      "åĮĹæ´ĭ": 7113,
      "Ġ190": 7114,
      "èı©": 7115,
      "æģ¨": 7116,
      "ç¶ĵåħ¸": 7117,
      "éĸĭè¨Ń": 7118,
      "åĪĽå»º": 7119,
      "å£ĵåĬĽ": 7120,
      "çłĶç©¶ä¸Ńå¿ĥ": 7121,
      "æŀĦæĪĲ": 7122,
      "æŃ¤å¾Į": 7123,
      "ä¼Ļ": 7124,
      "åħ¶ä¸Ńä¸Ģ": 7125,
      "å±±èĦĪ": 7126,
      "åħ¬æĸ¤": 7127,
      "å®¶ä¸Ń": 7128,
      "æĺİæĺ¾": 7129,
      "ç¦¦": 7130,
      "å¥¹åľ¨": 7131,
      "æľĢå¾Įä¸Ģ": 7132,
      "å¹´åķŁçĶ¨çļĦ": 7133,
      "ç¢°": 7134,
      "åĨķ": 7135,
      "ç«Ł": 7136,
      "å¹´é½¡": 7137,
      "éĩĳçīĮ": 7138,
      "çºªå½ķ": 7139,
      "ations": 7140,
      "å¹³çŃī": 7141,
      "æĳ§": 7142,
      "è±¡å¾µ": 7143,
      "çī²": 7144,
      "ãĥŃ": 7145,
      "æĹ¥æľ¬çļĦ": 7146,
      "åĬĩéĽĨ": 7147,
      "å½¦": 7148,
      "çļĦä¸Ģç¨®": 7149,
      "åģļåĩº": 7150,
      "çļĦæľī": 7151,
      "å±į": 7152,
      "çĥ¯": 7153,
      "å¼ķåıĳ": 7154,
      "æĬ«": 7155,
      "å¼ĵ": 7156,
      "å§¿": 7157,
      "å¤ļæķ°": 7158,
      "å½¢å®¹": 7159,
      "å¹»æĥ³": 7160,
      "ä¸»äºĭ": 7161,
      "äººåı£æĻ®æŁ¥": 7162,
      "æķĻä¼ļ": 7163,
      "ä»İäºĭ": 7164,
      "çļĦæīĭ": 7165,
      "éģĶæĪĲ": 7166,
      "èŀįåĲĪ": 7167,
      "é°ŃéŃļ": 7168,
      "éĥ½ä¼ļ": 7169,
      "çļĦå¤©": 7170,
      "å¤§å»Ī": 7171,
      "å°±æľĥ": 7172,
      "è¶³å¤": 7173,
      "èĩĤ": 7174,
      "æİĮæı¡": 7175,
      "åĵ¥ä¼¦": 7176,
      "æĪĲä¸ºäºĨ": 7177,
      "è¸ı": 7178,
      "Go": 7179,
      "æ°£æĹĭ": 7180,
      "äºĶåįģ": 7181,
      "è±¬": 7182,
      "ãĢĤâĢľ": 7183,
      "èķĥ": 7184,
      "åĲĪæ³ķ": 7185,
      "ä¸īå¤§": 7186,
      "å¸ĥå°Ķ": 7187,
      "åķĨåºĹ": 7188,
      "åĽĽä¸ª": 7189,
      "æĢ§èĥ½": 7190,
      "åħĶ": 7191,
      "ç¦§": 7192,
      "çīłåĢĳ": 7193,
      "ED": 7194,
      "çĶŁæħĭ": 7195,
      "ä¿±æ¨Ĥ": 7196,
      "ground": 7197,
      "çŁĽçĽ¾": 7198,
      "ç¦ª": 7199,
      "æ½¤": 7200,
      "iel": 7201,
      "è¥¿åįĹéĥ¨": 7202,
      "è¢Ńåĩ»": 7203,
      "çĻ¾ç§ĳ": 7204,
      "è¹¤": 7205,
      "çľł": 7206,
      "èĮħ": 7207,
      "å¸¸åĬ¡": 7208,
      "æ³¨éĩĭ": 7209,
      "åľ°é»ŀ": 7210,
      "ii": 7211,
      "å®ļå¾ĭ": 7212,
      "æ¼ĶåĮĸ": 7213,
      "æĽ²çĽ®": 7214,
      "ä¼¯çĪµ": 7215,
      "ä¹ĲéĺŁ": 7216,
      "åħģè¨±": 7217,
      "å¥³ç¥ŀ": 7218,
      "ç¹©": 7219,
      "éļİç´ļ": 7220,
      "é¾Ļæ±Ł": 7221,
      "æĮĩæİ§": 7222,
      "èħ¿": 7223,
      "1918": 7224,
      "èĬĻ": 7225,
      "éĤĬçķĮ": 7226,
      "ĠĊĊĠ": 7227,
      "å®ŀéĻħä¸Ĭ": 7228,
      "\",": 7229,
      "ĠâĢľ": 7230,
      "åº¸": 7231,
      "è¥²æĵĬ": 7232,
      "Ġ2017": 7233,
      "ä»ķ": 7234,
      "åľĭèªŀ": 7235,
      "å®£è¨Ģ": 7236,
      "amb": 7237,
      "æ±Łèĭıçľģ": 7238,
      "æ£ĺ": 7239,
      "æ±īè¯Ń": 7240,
      "ç©įæ¥µ": 7241,
      "ä¸Ģå¸¦": 7242,
      "ç¿ħ": 7243,
      "ä»ĭç»į": 7244,
      "æ²Īéĺ³": 7245,
      "ä¸°å¯Į": 7246,
      "æł¼å¼ı": 7247,
      "ç§ĳåŃ¦å®¶": 7248,
      "é©¾": 7249,
      "æł¹å»·": 7250,
      "ĠBr": 7251,
      "é¢ĨåľŁ": 7252,
      "ãĥ³ãĥ": 7253,
      "æĶ¾åľ¨": 7254,
      "Ġis": 7255,
      "å¾Īå°ĳ": 7256,
      "éĴĪå¯¹": 7257,
      "ograp": 7258,
      "é«Ķéķ·åı¯éģĶ": 7259,
      "à¸": 7260,
      "æı´åĬ©": 7261,
      "æĺ¯ä¸į": 7262,
      "æ»ĭ": 7263,
      "Ġch": 7264,
      "éĻ¢éķ·": 7265,
      "èµł": 7266,
      "çıĢ": 7267,
      "æľĿæĹ¥": 7268,
      "éĽ»è¦ĸç¯ĢçĽ®": 7269,
      "è¼»é°ŃéŃļ": 7270,
      "çļĦæľĢ": 7271,
      "è³ľ": 7272,
      "åĪĳäºĭ": 7273,
      ":ãĢĤ": 7274,
      "NHK": 7275,
      "çĽĪ": 7276,
      "åİĿ": 7277,
      "mm": 7278,
      "è¾¯": 7279,
      "å®ļæľŁ": 7280,
      "æĪĲäºº": 7281,
      "ç¨±åĳ¼": 7282,
      "åĺĹ": 7283,
      "æ°«": 7284,
      "èħ¾": 7285,
      "å¤ĸäº¤éĥ¨": 7286,
      "æĪĲåĪĨ": 7287,
      "back": 7288,
      "å¼ĢéĢļ": 7289,
      "å°ıçµĦ": 7290,
      "æĶ¾å°Ħ": 7291,
      "æİ©": 7292,
      "æ¬½": 7293,
      "å¤©çļĦ": 7294,
      "1924": 7295,
      "ç¬¦èĻŁ": 7296,
      "è¼»é°ŃéŃļç¶±": 7297,
      "èµı": 7298,
      "èĩªæ®º": 7299,
      "æł¹æľ¬": 7300,
      "åŁºéĩĳæľĥ": 7301,
      "1914": 7302,
      "ç©´": 7303,
      "çŁ®": 7304,
      "çĽ¸åıį": 7305,
      "ES": 7306,
      "çļĦç¬¬äºĮ": 7307,
      "rowspan": 7308,
      "å¹²éĥ¨": 7309,
      "åĨľæ°ĳ": 7310,
      "æł¼çļĦ": 7311,
      "é¡§åķı": 7312,
      "çŃĴ": 7313,
      "æĶ¾éĢģ": 7314,
      "è¯ŀ": 7315,
      "åŁİåł¡": 7316,
      "Ð²": 7317,
      "æīĵæĵĬ": 7318,
      "å±±æĿ±": 7319,
      "çĻ»éĻ¸": 7320,
      "çŃĸçķ¥": 7321,
      "è³¦": 7322,
      "å·¡è¿´": 7323,
      "ç¬¦åı·": 7324,
      "åĽ½æ°ĳåħļ": 7325,
      "OM": 7326,
      "éģŀ": 7327,
      "åŁĥå°Ķ": 7328,
      "åıĤåĬłäºĨ": 7329,
      "æ¯ıæĹ¥": 7330,
      "Ã¡": 7331,
      "è§Ģåħī": 7332,
      "æ£ķ": 7333,
      "å¥³ä¸»è§Ĵ": 7334,
      "ç¦ıå»ºçľģ": 7335,
      "ä¸įæ»¿": 7336,
      "ale": 7337,
      "è£½ä½ľäºº": 7338,
      "è²¢çį»": 7339,
      "è»Ĭäººæ¬¡": 7340,
      "éħįç½®": 7341,
      "äººæķ°": 7342,
      "èĤĿ": 7343,
      "å¨±": 7344,
      "å·¡æ´ĭ": 7345,
      "FF": 7346,
      "ä»£çļĦ": 7347,
      "ç¥ŀè©±": 7348,
      "å¤§åħ¬": 7349,
      "èĸª": 7350,
      "æ¨¡çī¹": 7351,
      "åİŁçĲĨ": 7352,
      "åĪ©æĸ¯": 7353,
      "çĵ¦å°Ķ": 7354,
      "æĭĨéĻ¤": 7355,
      "é¶´": 7356,
      "çļĦåľĭå®¶": 7357,
      "èĥģ": 7358,
      "åİŁä½ľ": 7359,
      "éľ§": 7360,
      "è»Ĭç«Ļå¤§æ¨ĵ": 7361,
      "åĩºçĶŁäºİ": 7362,
      "è³¼è²·": 7363,
      "Sp": 7364,
      "è²¼": 7365,
      "è§Ģé»ŀ": 7366,
      "çļĦæīĢæľī": 7367,
      "å¯¹å¤ĸ": 7368,
      "åįķæĽ²": 7369,
      "ç°¡ä»ĭ": 7370,
      "éģİç¨ĭä¸Ń": 7371,
      "æĥħåł±": 7372,
      "çĳľ": 7373,
      "ä¸»åĬĽ": 7374,
      "åĮĹå¹³": 7375,
      "çĻ¼ä½Ī": 7376,
      "èĬŃ": 7377,
      "éĽĩ": 7378,
      "æĻĤæ®µ": 7379,
      "æĢ§è³ª": 7380,
      "è¦ªçİĭ": 7381,
      "åĲ»": 7382,
      "åħ½": 7383,
      "çĪª": 7384,
      "å®īè£Ŀ": 7385,
      "åıĳæĺİ": 7386,
      "æ²¿å²¸": 7387,
      "æĻºæħ§": 7388,
      "èĺĭ": 7389,
      "æĦıä¸º": 7390,
      "æŃ»å¾Į": 7391,
      "èªªæĺİ": 7392,
      "èĪĩåħ¶ä»ĸ": 7393,
      "åįĩæł¼": 7394,
      "çļĦä¸ĸçķĮ": 7395,
      "å¹¶æ²¡æľī": 7396,
      "ãģ«": 7397,
      "èħº": 7398,
      "éĶģ": 7399,
      "ç½ļ": 7400,
      "è²©": 7401,
      "éĽ»è©±": 7402,
      "çŁ¥åºľ": 7403,
      "åľ°è´¨": 7404,
      "éĽ»è¦ĸåĭķçķ«": 7405,
      "å¼ĹéĩĮ": 7406,
      "æīĢåľ¨åľ°": 7407,
      "è·ĭ": 7408,
      "æŁ¬": 7409,
      "ove": 7410,
      "æħķå®¹": 7411,
      "æķĻå£«": 7412,
      "çĶŁæĢģ": 7413,
      "èĤħ": 7414,
      "ros": 7415,
      "lex": 7416,
      "å¾ĹåĲį": 7417,
      "åĸ·": 7418,
      "æĹŃ": 7419,
      "çĮľ": 7420,
      "usic": 7421,
      "æ¼¢åŃĹ": 7422,
      "æ¾İ": 7423,
      "åĬłä»¥": 7424,
      "åıĹåĤ·": 7425,
      "è¿ĩåİ»": 7426,
      "Ġ2016": 7427,
      "éĺ¿æł¹å»·": 7428,
      "ĠLe": 7429,
      "igh": 7430,
      "èĴĻçī¹": 7431,
      "èº«ä¸Ĭ": 7432,
      "Ġåīį": 7433,
      "åĽ½å®¶çº§": 7434,
      "åł¤": 7435,
      "çļĦä¸Ģåº§": 7436,
      "åı¯èĥ½æľĥ": 7437,
      "å¹´è½»": 7438,
      "ä½ĳ": 7439,
      "åħįè²»": 7440,
      "ä¸ĵéĹ¨": 7441,
      "éĽ·æĸ¯": 7442,
      "Ġ2015": 7443,
      "å¹´å¼Ģå§ĭ": 7444,
      "åį±æ©Ł": 7445,
      "ä¸Ģç³»åĪĹ": 7446,
      "åįĹå®ĭ": 7447,
      "æĲ¶": 7448,
      "CC": 7449,
      "1919": 7450,
      "ç¶ĵé©Ĺ": 7451,
      "çĮİ": 7452,
      "é¾Ĳ": 7453,
      "ä¼°è¨Ī": 7454,
      "700": 7455,
      "ç£¯": 7456,
      "çľģçļĦä¸Ģä¸ªå¸Ĥéķĩ": 7457,
      "çħĮ": 7458,
      "å°ĪéĸĢ": 7459,
      "æĢ»éĥ¨": 7460,
      "å´Ļ": 7461,
      "ĊĠĊĠĊ": 7462,
      "å¸Ĥéķ·": 7463,
      "ç¹«": 7464,
      "åħĪè¿Ľ": 7465,
      "æħĪåĸĦ": 7466,
      "å°¿": 7467,
      "å§ĭå»ºæĸ¼": 7468,
      "ä¸ĭäºĨ": 7469,
      "åĻ´": 7470,
      "æĤ¬": 7471,
      "ä¸¹éº¦": 7472,
      "å¹³æĸ¹åįĥç±³": 7473,
      "line": 7474,
      "é©¶": 7475,
      "att": 7476,
      "ç¥ŀç»ı": 7477,
      "ä¾Ŀæĵļ": 7478,
      "pt": 7479,
      "ual": 7480,
      "æµĭè¯ķ": 7481,
      "ology": 7482,
      "æ·ĺæ±°": 7483,
      "èµ¢å¾Ĺ": 7484,
      "åĲīä»ĸ": 7485,
      "ä¸Ńåľĭåľĭæ°ĳé»¨": 7486,
      "æ¤İ": 7487,
      "å®ļçĲĨ": 7488,
      "å®īè£ħ": 7489,
      "we": 7490,
      "åĳ¨æģ©": 7491,
      "ä¸īäºº": 7492,
      "å¸ĥéĩĮ": 7493,
      "ä¾įéĥİ": 7494,
      "ĠãĢģ": 7495,
      "æīĢå±ŀçļĦ": 7496,
      "å°įæĬĹ": 7497,
      "é¦ĸæĴŃ": 7498,
      "æªĶæ¡Ī": 7499,
      "Ġan": 7500,
      "ä»£æĽ¿": 7501,
      "éģĵåħī": 7502,
      "é½¿": 7503,
      "çļĦåľ°ä½į": 7504,
      "éĢĴ": 7505,
      "1922": 7506,
      "éĤ£ä¹Ī": 7507,
      "éĢ»": 7508,
      "æİ¨ç¿»": 7509,
      "åľ°åľĸ": 7510,
      "æ·µ": 7511,
      "èģ²æĺİ": 7512,
      "èħ°": 7513,
      "é¡ıèī²": 7514,
      "ä¸§": 7515,
      "ä¼łè¯´": 7516,
      "æ°¸ä¹ħ": 7517,
      "èĢ¶å¾ĭ": 7518,
      "MV": 7519,
      "åįĹæĸ¯æĭīå¤«": 7520,
      "è¿Ļæ¬¡": 7521,
      "æĲŀ": 7522,
      "åįĹæ¥µæ´²": 7523,
      "Î±": 7524,
      "æľ¬ç§ĳ": 7525,
      "æķĻåŃ¸": 7526,
      "å£¯": 7527,
      "åĮĸçŁ³": 7528,
      "è®Ĭå¾Ĺ": 7529,
      "æĥ³è¦ģ": 7530,
      "ãĢĤãĢĤ": 7531,
      "çĪ¾å¾·": 7532,
      "åľĭéļĽæ©Łåł´": 7533,
      "è¦ĨçĽĸ": 7534,
      "éĹľæ³¨": 7535,
      "çĲĥæľĥ": 7536,
      "å¸ĥé²ģ": 7537,
      "åĪĨä¹ĭä¸Ģ": 7538,
      "å¢ĥåħ§": 7539,
      "è¾©": 7540,
      "å±ķå¼Ģ": 7541,
      "Ġæĺ¯": 7542,
      "æ·³": 7543,
      "ĠâĨĴ": 7544,
      "åħ¨ä¸ĸçķĮ": 7545,
      "èĩ³æĸ¼": 7546,
      "å¼ĹéĽ·": 7547,
      "ãģ¾": 7548,
      "å°ĶçļĦ": 7549,
      "åĽ½å®¶çļĦ": 7550,
      "ä¿±æ¨Ĥéĥ¨": 7551,
      "èī²å½©": 7552,
      "æł¼åĭĴ": 7553,
      "æ·¨": 7554,
      "èİİçĻ½": 7555,
      "ãĥŀ": 7556,
      "è§Ĩé¢ĳ": 7557,
      "æ°ĳéĹ´": 7558,
      "æł¼éĩĮ": 7559,
      "))": 7560,
      "å¹´æĹ¥æľ¬": 7561,
      "å¤ıä»¤": 7562,
      "gcolor": 7563,
      "çĻ¼èµ·": 7564,
      "æŃ¥æ§į": 7565,
      "æ²³çļĦ": 7566,
      "rip": 7567,
      "æĪĲæŀľ": 7568,
      "å°įè±¡": 7569,
      "æİ¢æµĭ": 7570,
      "å·¨å¤§çļĦ": 7571,
      "èŃ¦åĳĬ": 7572,
      "èĪĪè¶£": 7573,
      "æĪĲçĨŁ": 7574,
      "åľ°åľ¨": 7575,
      "åĵ¥åĵ¥": 7576,
      "åĩºçı¾åľ¨": 7577,
      "å±±èĦī": 7578,
      "æĹ©ä¸Ĭ": 7579,
      "èĲ¬æĽĨ": 7580,
      "ĠDe": 7581,
      "çĳªéºĹ": 7582,
      "ä¸»é¢ĺ": 7583,
      "ç»´åŁĥ": 7584,
      "ä½¿çĶ¨äºĨ": 7585,
      "éģ²": 7586,
      "æİ¡åıĸ": 7587,
      "ãĦ": 7588,
      "å¸Ĩ": 7589,
      "è¾Ł": 7590,
      "éĢĶä¸Ń": 7591,
      "åħĥéŁ³": 7592,
      "å¤ªåİŁ": 7593,
      "éĽħåħ¸": 7594,
      "IR": 7595,
      "æħ°": 7596,
      "ä»ĸä¹Ł": 7597,
      "æĢ§åĪ¥": 7598,
      "Ġhttp": 7599,
      "èİ²": 7600,
      "åį¡çĪ¾": 7601,
      "site": 7602,
      "å¹³æ°ĳ": 7603,
      "éĢ£è¼ī": 7604,
      "çıŃæ¬¡": 7605,
      "åĲİèĢħ": 7606,
      "Ġex": 7607,
      "æĶ¹åĲį": 7608,
      "èªįèŃĺ": 7609,
      "å¯Įæ±Ĺ": 7610,
      "åĽŀæŃ¸": 7611,
      "å¼ĹæľĹ": 7612,
      "å¸ĤæĶ¿": 7613,
      "éĢļçŁ¥": 7614,
      "æľªæĿ¥": 7615,
      "å»£å³¶": 7616,
      "çİĩé¢Ĩ": 7617,
      "åĬŀäºĭ": 7618,
      "åŁł": 7619,
      "ä»ĸæĽ¾": 7620,
      "éĥ½è¢«": 7621,
      "èĦĪ": 7622,
      "æīĵçł´": 7623,
      "éĢĲæŃ¥": 7624,
      "ç§ĳåŃ¸å®¶": 7625,
      "æ¶¼": 7626,
      "æ³¢éŁ³": 7627,
      ")ãĢģãĢĬ": 7628,
      "æ²³åįĹçľģ": 7629,
      "Ġèİ±": 7630,
      "æĹ¶çļĦ": 7631,
      "edia": 7632,
      "ä»ĸè¢«": 7633,
      "çĭĲ": 7634,
      "Ġ1987": 7635,
      "åĶ¯ä¸ĢçļĦ": 7636,
      "æľĥéķ·": 7637,
      "æľªæľī": 7638,
      "å¸ĥæĶ¿": 7639,
      "åĪĻæĺ¯": 7640,
      "èĵ¬": 7641,
      "æĭ±": 7642,
      "èĲ½æĪĲ": 7643,
      "åĲĪç´Ħ": 7644,
      "ons": 7645,
      "æĹıäºº": 7646,
      "åį¡æĸ¯": 7647,
      "ç»ĵå©ļ": 7648,
      "åı°ä¸Ń": 7649,
      "æİ¨è¡Į": 7650,
      "æ¯Ĺ": 7651,
      "äºĭä¸ļ": 7652,
      "æ³¢å£«": 7653,
      "çĳŁå¤«": 7654,
      "å¹´é¦Ļæ¸¯": 7655,
      "åıĭå¥½": 7656,
      "åľĭæ°ĳæĶ¿åºľ": 7657,
      "ffic": 7658,
      "éħįéŁ³åĵ¡": 7659,
      "å¡ŀå°Ķç»´äºļ": 7660,
      "çī¹æĢ§": 7661,
      "ĠEx": 7662,
      "ogle": 7663,
      "å»¶ä¼¸éĺħè¯»": 7664,
      "å¸ĥæľĹ": 7665,
      "è¼ĥçĤº": 7666,
      "å¤§çľ¾": 7667,
      "ĠAnt": 7668,
      "çĲĥåł´": 7669,
      "èĢĥè©¦": 7670,
      "ç°¡åĸ®": 7671,
      "å°Ķåħ°": 7672,
      "å¡ļ": 7673,
      "ML": 7674,
      "ä¸īåĽ½": 7675,
      "æĢ»çĿ£": 7676,
      "ç¨®æĹı": 7677,
      "è§Ĩä¸º": 7678,
      "å¹´åķŁçĶ¨çļĦéĲµè·¯è»Ĭç«Ļ": 7679,
      "ink": 7680,
      "çĶµåĬĽæľºè½¦": 7681,
      "çļĦæ¦Ĥå¿µ": 7682,
      "åħ³æ³¨": 7683,
      "oll": 7684,
      "å°ļä¹¦": 7685,
      "èŃļ": 7686,
      "æĪıåī§": 7687,
      "æ°´ç³»": 7688,
      "é»ĳæļĹ": 7689,
      "æĦĽæĥħ": 7690,
      "å¥ªå¾Ĺ": 7691,
      "åºĩ": 7692,
      "å¯ĩ": 7693,
      "éģŃéģĩ": 7694,
      "çĹħéĢĿ": 7695,
      "åľ°éĲµ": 7696,
      "åĥļ": 7697,
      "æĩ¸": 7698,
      "å·´åŁº": 7699,
      "è¤Ĳ": 7700,
      "è¤ĩéĽľ": 7701,
      "å¤§äºĭè®°": 7702,
      "æī¹åĪ¤": 7703,
      "å¸ħ": 7704,
      "ä¸¦ä»¥": 7705,
      "å§ĵæ°ı": 7706,
      "ä¹Įåħĭåħ°": 7707,
      "anc": 7708,
      "ĠèĲĬ": 7709,
      "åĲĦåľĭ": 7710,
      "å¼¥": 7711,
      "çļĦå±±": 7712,
      "å¸Ĥä¸Ńå¿ĥ": 7713,
      "æĹ¶ä»»": 7714,
      "éĢļè¨Ĭ": 7715,
      "æ§ĭæĪĲ": 7716,
      "å¤ĸåľĭ": 7717,
      "è¯¾ç¨ĭ": 7718,
      "ä¹ĭæĪĺ": 7719,
      "åĬłå·¥": 7720,
      "250": 7721,
      "éĻĦå±ŀ": 7722,
      "ç«ĻçļĦ": 7723,
      "å¨¶": 7724,
      "åĲĦåĽ½": 7725,
      "æĦıç¾©": 7726,
      "è¿½æº¯": 7727,
      "ä½ĨåĽł": 7728,
      "éĺ¿å¯Įæ±Ĺ": 7729,
      "åĩĮæĻ¨": 7730,
      "éĩĮçļĦ": 7731,
      "ç®Ĺæ³ķ": 7732,
      "èĹ»": 7733,
      "åľ¨æĸ°": 7734,
      "ä¸Ģäºº": 7735,
      "çĪº": 7736,
      "ism": 7737,
      "éĻ¸çºĮ": 7738,
      "éŁ³æ¨Ĥå°Īè¼¯": 7739,
      "èĲ¨åħĭ": 7740,
      "é»ĳé¾Ļæ±Ł": 7741,
      "ä¸¦å°ĩ": 7742,
      "æķ´åĲĪ": 7743,
      "æĽ¿ä»£": 7744,
      "åĪĨåī²": 7745,
      "çķĮçļĦ": 7746,
      "éĵº": 7747,
      "ç»ĦåĲĪ": 7748,
      "eth": 7749,
      "1921": 7750,
      "èµĲ": 7751,
      "åĲĮæĹ¥": 7752,
      "æ¨ĻèªĮ": 7753,
      "OV": 7754,
      "1917": 7755,
      "èĲ¬åħĥ": 7756,
      "æ®ºæŃ»": 7757,
      "å±ħä½ıåľ¨": 7758,
      "éģĵçļĦ": 7759,
      "æİĴåĪĹ": 7760,
      "æ²³åĮĹçľģ": 7761,
      "ject": 7762,
      "èĬ±åľĴ": 7763,
      "çº¢èī²": 7764,
      "ebsite": 7765,
      "sc": 7766,
      "æ°®": 7767,
      "æµĵ": 7768,
      "Ġcl": 7769,
      "å®¢å®¶": 7770,
      "åİŁåīĩ": 7771,
      "ä¾ĨåĪ°": 7772,
      "ä¸ľäº¬": 7773,
      "æĮĩå°İ": 7774,
      "æĻºèĥ½": 7775,
      "åĩ°": 7776,
      "çłĶç©¶çĶŁ": 7777,
      "æİ¢ç´¢": 7778,
      "æĺı": 7779,
      "1923": 7780,
      "é©¬å°Ķ": 7781,
      "ä¾Ŀçħ§": 7782,
      "æī©å¤§": 7783,
      "eat": 7784,
      "éĢ²æŃ¥": 7785,
      "130": 7786,
      "æŃĮåĶ±": 7787,
      "âĢĿ)": 7788,
      "é«Ķç³»": 7789,
      "æł¡åľĴ": 7790,
      "éĸĭéĢļ": 7791,
      "åįłæĢ»äººåı£çļĦ": 7792,
      "å½¢çĽ®": 7793,
      "ä¸¤äºº": 7794,
      "è£Ķç¾İåľĭ": 7795,
      "å°ıå§Ĳ": 7796,
      "äºĮçº§": 7797,
      "åĭĺ": 7798,
      "èµĭ": 7799,
      "åĬłéĢŁ": 7800,
      "enc": 7801,
      "iam": 7802,
      "ä¸»å¼ł": 7803,
      "æĥľ": 7804,
      "åĩºçĶŁæĸ¼": 7805,
      "æ¾³å¤§åĪ©äºŀ": 7806,
      "éĶĻè¯¯": 7807,
      "åŃ¸åľĴ": 7808,
      "çļĦåħ¬": 7809,
      "Th": 7810,
      "çļĦèĥ½åĬĽ": 7811,
      "èģļéĽĨ": 7812,
      "è¶ķ": 7813,
      "æķĪçİĩ": 7814,
      "å°ļæĽ¸": 7815,
      "åĬłåħ¥äºĨ": 7816,
      "å¨±ä¹Ĳ": 7817,
      "ç¶łèī²": 7818,
      "çļĦå¤ļ": 7819,
      "å¦Ĥä»Ĭ": 7820,
      "å¤§å®¶": 7821,
      "ãĤ«": 7822,
      "åĭĴæĸ¯": 7823,
      "çļĦæ¨¡å¼ı": 7824,
      "ãĢĤ)": 7825,
      "åİŁåħĪ": 7826,
      "çĻ¾åĪĨ": 7827,
      "éĽ£ä»¥": 7828,
      "çļĦä½įç½®": 7829,
      "1913": 7830,
      "æ¶¦": 7831,
      "éĮĦå½±": 7832,
      "æĹ¶æľŁçļĦ": 7833,
      "EE": 7834,
      "ana": 7835,
      "èŃīæĵļ": 7836,
      "æĬµè¾¾": 7837,
      "äººæīį": 7838,
      "ç¥Ī": 7839,
      "äºļåİĨ": 7840,
      "ç¦»åŃĲ": 7841,
      "æ¸©åº¦": 7842,
      "æ£ĢæŁ¥": 7843,
      "é¥°æ¼Ķ": 7844,
      "æİ¥å£¤çļĦ": 7845,
      "æĹ¶çļĦäººåı£": 7846,
      "å°±æľī": 7847,
      "çĪ±å°Ķåħ°": 7848,
      "çļĦçĻ¼å±ķ": 7849,
      "æĽ´å¤ļçļĦ": 7850,
      "ä½įäºİæ³ķåĽ½": 7851,
      "èĹ¥çī©": 7852,
      "éĺ³åİ¿": 7853,
      "æŀ¶æ§ĭ": 7854,
      "åĺīéĿĸ": 7855,
      "èĺĭæŀľ": 7856,
      "ä¸»æ¬Ĭ": 7857,
      "ara": 7858,
      "çĶ·å¥³": 7859,
      "You": 7860,
      "æĹ¥æŃ£å¼ı": 7861,
      "çļĦåĽ½å®¶": 7862,
      "äºĭå®ŀ": 7863,
      "ance": 7864,
      "ĠTr": 7865,
      "æĪĲç«ĭäºĨ": 7866,
      "éĿŀæ³ķ": 7867,
      "è¶ħè¶Ĭ": 7868,
      "çį²çįİ": 7869,
      "åĨħéĺģ": 7870,
      "å¨ģèĥģ": 7871,
      "åįİçĽĽ": 7872,
      "ç±³å°Ķ": 7873,
      "ç²¾éĿĪ": 7874,
      "ä¸Ģéĥ¨": 7875,
      "åħ·ä½ĵ": 7876,
      "ç£·": 7877,
      "æĭľåįł": 7878,
      "åľ¨è¥¿": 7879,
      "æĢ§æł¼": 7880,
      "åįĢèŃ°æľĥ": 7881,
      "éķ·åº¦": 7882,
      "å·´ä¼Ĳ": 7883,
      "é¦ĸåºľ": 7884,
      "ĠAd": 7885,
      "ĠGe": 7886,
      "æ¹ĸåįĹçľģ": 7887,
      "å¾·èı¯": 7888,
      "å¸ĥæĸ¯": 7889,
      "éģºçĶ¢": 7890,
      "ä¸ºæ³ķåĽ½": 7891,
      "ä¿¡èĻŁ": 7892,
      "å¯ĨåĪĩ": 7893,
      "åĪºæ¿Ģ": 7894,
      "åĻ¸": 7895,
      "ä¸ĬäºĨ": 7896,
      "è«ĸæĸĩ": 7897,
      "å¹´ä¸Ń": 7898,
      "åĲĮå¿Ĺ": 7899,
      "æĶ¶è³¼": 7900,
      "åĩī": 7901,
      "çľģå¸ĤéķĩåĪĹè¡¨": 7902,
      "ç¿°æŀĹ": 7903,
      "ç§ĳå¹»": 7904,
      "åĽĽåĢĭ": 7905,
      "ä¿Ŀç¾ħ": 7906,
      "åŁ·å°İ": 7907,
      "è´µå·ŀ": 7908,
      "çļĦä»£è¡¨": 7909,
      "æĥ¯": 7910,
      "101": 7911,
      "åŃĹç¬¦": 7912,
      "è¶ħçº§": 7913,
      "æ»ķ": 7914,
      "çĮ´": 7915,
      "ä¸Ģéĥ¨åĪĨ": 7916,
      "åı¦ä¸ĢåĢĭ": 7917,
      "æ¸¬éĩı": 7918,
      "è£ģåĪ¤": 7919,
      "æľīæľº": 7920,
      "æ²³éģĵ": 7921,
      "åĥıæĺ¯": 7922,
      "è¡įçĶŁ": 7923,
      "åįİçĽĽé¡¿": 7924,
      "ç§¯æŀģ": 7925,
      "èĪªç©ºåħ¬åı¸": 7926,
      "çĽĳçĿ£": 7927,
      "iew": 7928,
      "ett": 7929,
      "é±¼ç±»": 7930,
      "æĪĲéķ·": 7931,
      "çĮ«": 7932,
      "åħįçĸ«": 7933,
      "åĲĬ": 7934,
      "åĴĴ": 7935,
      "ä¿Ŀå®ī": 7936,
      "å´ĸ": 7937,
      "æŃ·åı²ä¸Ĭ": 7938,
      "èĽĻ": 7939,
      "ç®¡åĪ¶": 7940,
      "æĪĲçĤºäºĨ": 7941,
      "æĪĬ": 7942,
      "ç©ºæ°Ķ": 7943,
      "æ°´åŁŁ": 7944,
      "è´µæĹı": 7945,
      "å±±ä¸ľçľģ": 7946,
      "æķĻå¾Ĵ": 7947,
      "è¯ı": 7948,
      "å¤§è§Ħæ¨¡": 7949,
      "Ġ1997": 7950,
      "éĮ¯èª¤": 7951,
      "å¯¦çı¾": 7952,
      "åıĹæŃ¡è¿İ": 7953,
      "ç°½ç½²": 7954,
      "ma": 7955,
      "å·¥åİĤ": 7956,
      "ä»¥ä¾¿": 7957,
      "åĩ½æķ¸": 7958,
      "åĮĪå¥´": 7959,
      "åĨħæĪĺ": 7960,
      "ç§įæĹı": 7961,
      "çļĦä¸Ĭ": 7962,
      "åħ©å²¸": 7963,
      "æ²¿éĿ©": 7964,
      "å¸ĸ": 7965,
      "çķ¶å±Ģ": 7966,
      "åı¸ä»¤åĳĺ": 7967,
      "ç¶²éłģ": 7968,
      "ç¢ºèªį": 7969,
      "æĹ©æľŁçļĦ": 7970,
      "èĩī": 7971,
      "ç²¤": 7972,
      "æĶ¾å¼ĥ": 7973,
      "ä»ĭçŁ³": 7974,
      "çĪ¾çļĦ": 7975,
      "æĮĩä»¤": 7976,
      "æ»©": 7977,
      "ĠMan": 7978,
      "éĶĢåĶ®": 7979,
      "æĸ¬": 7980,
      "åľ°åŁŁ": 7981,
      "own": 7982,
      "äººæĸĩ": 7983,
      "æ¼³": 7984,
      "æ¼¢èªŀ": 7985,
      "å½¢æĪĲäºĨ": 7986,
      "åĬ£": 7987,
      "å°ıå¹³": 7988,
      "å§ĭäºº": 7989,
      "å½ĵæĹ¶çļĦ": 7990,
      "åĽĽæľĪ": 7991,
      "æĹ©åľ¨": 7992,
      "çİĩéłĺ": 7993,
      "ä½įç´ł": 7994,
      "éĸĵçļĦ": 7995,
      "çĿĽ": 7996,
      "è¾ĸåĮº": 7997,
      "æ¸¯åħĥ": 7998,
      "æŃ¤äºĭ": 7999,
      "å¥³åŃ©": 8000,
      "è§Ĥä¼Ĺ": 8001,
      "ç¾ħå¤«": 8002,
      "é²į": 8003,
      "ç¶ĵçĲĨ": 8004,
      "Bl": 8005,
      "ĠHe": 8006,
      "å¢ŀåĬłäºĨ": 8007,
      "å°ĭæī¾": 8008,
      ";\"|": 8009,
      "çļĦæŃĮæĽ²": 8010,
      "åĪĨå¸ĥæĸ¼": 8011,
      "å¹´ç¾İåľĭ": 8012,
      "æĢİ": 8013,
      "æľ¬ç«Ļ": 8014,
      "å±±çļĦ": 8015,
      "å¸ĥéŃ¯": 8016,
      "é¦¬æĭī": 8017,
      "çĽ®çļĦæĺ¯": 8018,
      "çĻ¾å¹´": 8019,
      "æĶ»æīĵ": 8020,
      "åī¯éĥ¨éķ¿": 8021,
      "æĭ¿çł´": 8022,
      "CH": 8023,
      "IM": 8024,
      "æĮĩå¯¼": 8025,
      "åĨĴéļª": 8026,
      ";\"": 8027,
      "æĸ¯æīĺ": 8028,
      "éĢĻæ¬¡": 8029,
      "ç¦ıéŁ³": 8030,
      "å¸Ńä½į": 8031,
      "æŁ¬åŁĶ": 8032,
      "æĹ¥å¸¸": 8033,
      "æĵ¦": 8034,
      "çİĭä½į": 8035,
      "æŁ¬åŁĶå¯¨": 8036,
      "æĦıè¯Ĩ": 8037,
      "è¶¨": 8038,
      "å¤ªå®Ĺ": 8039,
      "åħ«æľĪ": 8040,
      "ms": 8041,
      "è¶ģ": 8042,
      "åŁİéİ®": 8043,
      "èģĶåĲĪä¼ļ": 8044,
      "æĽ´æĺ¯": 8045,
      "çķ«å®¶": 8046,
      "æĥ³æ³ķ": 8047,
      "å®ĩèĪª": 8048,
      "ä¹ĭå¥³": 8049,
      "1911": 8050,
      "ä¸įçŁ¥": 8051,
      "çľŁå¯¦": 8052,
      "çīµå¼ķ": 8053,
      "åĥĳ": 8054,
      "å¸Įçī¹åĭĴ": 8055,
      "çļĦåķıé¡Į": 8056,
      "å¼Ģå±ķ": 8057,
      "ower": 8058,
      "app": 8059,
      "éĦ°è¿ĳ": 8060,
      "Ph": 8061,
      "çĶŁæĹ¥": 8062,
      "æ¸¯éĲµ": 8063,
      "æ°´åĪ©": 8064,
      "ä»įæľī": 8065,
      "ä»¥çĤº": 8066,
      "èģ°": 8067,
      "ä¹Łåı¯": 8068,
      "èĪĩåħ¶": 8069,
      "è·¯æĺĵæĸ¯": 8070,
      "æľĥæľī": 8071,
      "èīĻ": 8072,
      "çĻ¾å§ĵ": 8073,
      "å¸¶ä¾Ĩ": 8074,
      "çĶĺèĤĥ": 8075,
      "ç¼ħçĶ¸": 8076,
      "ä¸»ç¾©èĢħ": 8077,
      "å¤§åŃĹ": 8078,
      "éĮĦéŁ³": 8079,
      "éģŃåıĹ": 8080,
      "éłĲè¨Ī": 8081,
      "å±±åĮº": 8082,
      "æĵ´å¤§": 8083,
      "å°įæĸ¹": 8084,
      "ä¼ª": 8085,
      "å¥½åıĭ": 8086,
      "ä¸ĥæľĪ": 8087,
      "åĩºåľŁ": 8088,
      "å¤©çİĭ": 8089,
      "è²§": 8090,
      "ç¶ľèĹĿ": 8091,
      "ä»ĸäºº": 8092,
      "åģļçĤº": 8093,
      "åħ¨éķ·": 8094,
      "è¡ĽéļĬ": 8095,
      "ä½ľæ¥Ń": 8096,
      "åī§éĻ¢": 8097,
      "éĢłæĪĲçļĦ": 8098,
      "æµ·å³½": 8099,
      "Play": 8100,
      "rid": 8101,
      "éĽ»è»Ĭ": 8102,
      "åıĳèµ·": 8103,
      "çĢ¨": 8104,
      "Ġthat": 8105,
      "æ¦Ĥè¦ģ": 8106,
      "çŁ¥åİ¿": 8107,
      "éĻĲå®ļ": 8108,
      "åı«åģļ": 8109,
      "ky": 8110,
      "åľ°ä¸Ń": 8111,
      "ris": 8112,
      "åŁİçļĦ": 8113,
      "çĸĬ": 8114,
      "åĸľåĬĩ": 8115,
      "åŀ£": 8116,
      "çķ¶å¹´": 8117,
      "é¸¿": 8118,
      "çĽ£å¯Ł": 8119,
      "èĤ©": 8120,
      "åı¬éĸĭ": 8121,
      "å»ºåĪ¶": 8122,
      "çĽĹ": 8123,
      "äºĨä»ĸ": 8124,
      "è¢«è¦ĸçĤº": 8125,
      "éĢļè¡Į": 8126,
      "èµĽäºĭ": 8127,
      "æºĸæ±ºè³½": 8128,
      "çļĦçĶŁæ´»": 8129,
      "èµ·åĪĿ": 8130,
      "æĦŁæĥħ": 8131,
      "é¡¾éĹ®": 8132,
      "Ġãĥ": 8133,
      "äºĶä»£": 8134,
      "èĭıç»´åŁĥ": 8135,
      "å®ĭæľĿ": 8136,
      "å½¢æĪĲçļĦ": 8137,
      "SM": 8138,
      "ĠâĶ": 8139,
      "åĵ¡å·¥": 8140,
      "æĶ¹å»º": 8141,
      "åı¯ä»¥æĮĩ": 8142,
      "æ¿ķ": 8143,
      "éĨī": 8144,
      "å¤§æĪ°": 8145,
      "èĻĲ": 8146,
      "æµĭéĩı": 8147,
      "éĶ¦æłĩ": 8148,
      "è©©äºº": 8149,
      "çķľ": 8150,
      "æĸĩèīº": 8151,
      "åĲįåįķ": 8152,
      "ä¸ŃåĽ½çļĦ": 8153,
      "æĺ¯åĢĭ": 8154,
      "èĤĩ": 8155,
      "èĪªçıŃ": 8156,
      "urn": 8157,
      "æĴ¤éĢĢ": 8158,
      "æ»¡è¶³": 8159,
      "ä»ªå¼ı": 8160,
      "å®īå¾½çľģ": 8161,
      "åĳĪçı¾": 8162,
      "åı°åįĹ": 8163,
      "å°±åľ¨": 8164,
      "è´£ä»»": 8165,
      "ç«ĭéĻ¶": 8166,
      "ä¸įä»ħ": 8167,
      "æ±¶": 8168,
      "å½¢æĢģ": 8169,
      "ĠOr": 8170,
      "éģ®": 8171,
      "è´ŀ": 8172,
      "çļĦæĹ¥æľ¬": 8173,
      "æĸĩéĿ©": 8174,
      "éĳ½": 8175,
      "åĭ¸": 8176,
      "åĪĹçĤº": 8177,
      "æ¶Ĥ": 8178,
      "å³¶å¶¼": 8179,
      "æľĪèµ·": 8180,
      "ä¼ļéķ¿": 8181,
      "å¸¸ä½ı": 8182,
      "der": 8183,
      "åı¤å·´": 8184,
      "Ġdes": 8185,
      "éŁµ": 8186,
      "ç©ºæ°£": 8187,
      "åĢ¼å¾Ĺ": 8188,
      "ä¼ĺç§Ģ": 8189,
      "æĪĲå¹´": 8190,
      "ç¥ŀç¤¾": 8191
    },
    "merges": [
      [
        "ã",
        "Ģ"
      ],
      [
        "ä",
        "¸"
      ],
      [
        "ç",
        "ļ"
      ],
      [
        "çļ",
        "Ħ"
      ],
      [
        "ä",
        "º"
      ],
      [
        "æ",
        "ľ"
      ],
      [
        "ãĢ",
        "Ĥ"
      ],
      [
        "å",
        "ħ"
      ],
      [
        "å",
        "ı"
      ],
      [
        "å",
        "ľ"
      ],
      [
        "å",
        "¹"
      ],
      [
        "å",
        "¤"
      ],
      [
        "ä",
        "»"
      ],
      [
        "æ",
        "ĸ"
      ],
      [
        "å¹",
        "´"
      ],
      [
        "å",
        "®"
      ],
      [
        "å",
        "Ī"
      ],
      [
        "å",
        "Ĳ"
      ],
      [
        "å",
        "į"
      ],
      [
        "ç",
        "Ķ"
      ],
      [
        "ä",
        "½"
      ],
      [
        "å",
        "°"
      ],
      [
        "ãĢ",
        "ģ"
      ],
      [
        "æ",
        "ĺ"
      ],
      [
        "å",
        "Ń"
      ],
      [
        "æ",
        "Ĺ"
      ],
      [
        "å",
        "Ľ"
      ],
      [
        "å",
        "¾"
      ],
      [
        "æ",
        "Ī"
      ],
      [
        "ä",
        "¹"
      ],
      [
        "ä¸",
        "Ń"
      ],
      [
        "åľ",
        "¨"
      ],
      [
        "ä¸",
        "Ģ"
      ],
      [
        "å",
        "¸"
      ],
      [
        "é",
        "Ģ"
      ],
      [
        "äº",
        "º"
      ],
      [
        "å",
        "Ĭ"
      ],
      [
        "æ",
        "Ń"
      ],
      [
        "è",
        "¡"
      ],
      [
        "å",
        "Į"
      ],
      [
        "å",
        "·"
      ],
      [
        "é",
        "ģ"
      ],
      [
        "å¤",
        "§"
      ],
      [
        "ç",
        "ī"
      ],
      [
        "æĺ",
        "¯"
      ],
      [
        "è",
        "¿"
      ],
      [
        "é",
        "ĩ"
      ],
      [
        "è",
        "Ģ"
      ],
      [
        "æ",
        "Ķ"
      ],
      [
        "å",
        "º"
      ],
      [
        "å",
        "±"
      ],
      [
        "2",
        "0"
      ],
      [
        "æľ",
        "ī"
      ],
      [
        "1",
        "9"
      ],
      [
        "æ",
        "Ŀ"
      ],
      [
        "é",
        "ĥ"
      ],
      [
        "å",
        "Ĵ"
      ],
      [
        "æ",
        "ķ"
      ],
      [
        "æĹ",
        "¥"
      ],
      [
        "æ",
        "°"
      ],
      [
        "æľ",
        "Ī"
      ],
      [
        "åĴ",
        "Į"
      ],
      [
        "é",
        "Ļ"
      ],
      [
        "æ",
        "ī"
      ],
      [
        "â",
        "Ģ"
      ],
      [
        "è",
        "ĩ"
      ],
      [
        "ç",
        "Ĥ"
      ],
      [
        "å",
        "¼"
      ],
      [
        "ä",
        "¼"
      ],
      [
        "ç",
        "Ľ"
      ],
      [
        "é",
        "Ľ"
      ],
      [
        "åĽ",
        "½"
      ],
      [
        "å",
        "ĩ"
      ],
      [
        "æ",
        "³"
      ],
      [
        "ç",
        "»"
      ],
      [
        "å",
        "Ĩ"
      ],
      [
        "ç",
        "«"
      ],
      [
        "åľ",
        "ĭ"
      ],
      [
        "å",
        "¥"
      ],
      [
        "å",
        "¯"
      ],
      [
        "ç",
        "§"
      ],
      [
        "çĤ",
        "º"
      ],
      [
        "è",
        "Ī"
      ],
      [
        "è",
        "®"
      ],
      [
        "ä»",
        "¥"
      ],
      [
        "æ",
        "Ļ"
      ],
      [
        "æ",
        "²"
      ],
      [
        "å",
        "½"
      ],
      [
        "ç",
        "¾"
      ],
      [
        "å",
        "ī"
      ],
      [
        "æ",
        "µ"
      ],
      [
        "äº",
        "Ĩ"
      ],
      [
        "æĪ",
        "Ĳ"
      ],
      [
        "æ",
        "ĭ"
      ],
      [
        "ä¸",
        "º"
      ],
      [
        "åľ",
        "°"
      ],
      [
        "æ",
        "ł"
      ],
      [
        "å",
        "Ł"
      ],
      [
        "è",
        "¦"
      ],
      [
        "å",
        "İ"
      ],
      [
        "æ",
        "Ľ"
      ],
      [
        "è",
        "¯"
      ],
      [
        "éĥ",
        "¨"
      ],
      [
        "ç",
        "Ĳ"
      ],
      [
        "å",
        "ĵ"
      ],
      [
        "ç",
        "İ"
      ],
      [
        "é",
        "Ŀ"
      ],
      [
        "ä¸",
        "Ĭ"
      ],
      [
        "å",
        "»"
      ],
      [
        "ä¸",
        "į"
      ],
      [
        "è¡",
        "Į"
      ],
      [
        "ãĢ",
        "ĭ"
      ],
      [
        "ãĢ",
        "Ĭ"
      ],
      [
        "åĩ",
        "º"
      ],
      [
        "ç",
        "´"
      ],
      [
        "ç",
        "ķ"
      ],
      [
        "è",
        "¨"
      ],
      [
        "ä",
        "¾"
      ],
      [
        "æ",
        "´"
      ],
      [
        "æ",
        "İ"
      ],
      [
        "å",
        "ĭ"
      ],
      [
        "ç",
        "¬"
      ],
      [
        "å",
        "Ģ"
      ],
      [
        "ä¹",
        "ĭ"
      ],
      [
        "ç",
        "Ļ"
      ],
      [
        "ä¸",
        "»"
      ],
      [
        "ä½",
        "ľ"
      ],
      [
        "æ",
        "¸"
      ],
      [
        "å",
        "ĳ"
      ],
      [
        "çĶ",
        "Ł"
      ],
      [
        "è",
        "µ"
      ],
      [
        "è",
        "§"
      ],
      [
        "ä",
        "¿"
      ],
      [
        "ç",
        "º"
      ],
      [
        "æ",
        "Ģ"
      ],
      [
        "æĸ",
        "¯"
      ],
      [
        "é",
        "¦"
      ],
      [
        "åħ",
        "¬"
      ],
      [
        "é",
        "«"
      ],
      [
        "å®",
        "¶"
      ],
      [
        "æ",
        "¯"
      ],
      [
        "ç¬",
        "¬"
      ],
      [
        "æĸ",
        "¼"
      ],
      [
        "é",
        "ķ"
      ],
      [
        "æĸ",
        "ĩ"
      ],
      [
        "ä»",
        "ĸ"
      ],
      [
        "é",
        "ĸ"
      ],
      [
        "é",
        "ĺ"
      ],
      [
        "è",
        "ģ"
      ],
      [
        "ç",
        "µ"
      ],
      [
        "åħ",
        "¶"
      ],
      [
        "çĶ",
        "¨"
      ],
      [
        "ç",
        "¨"
      ],
      [
        "é",
        "ļ"
      ],
      [
        "è",
        "¥"
      ],
      [
        "æ",
        "ŀ"
      ],
      [
        "åĪ",
        "Ĩ"
      ],
      [
        "æ°",
        "ĳ"
      ],
      [
        "è",
        "»"
      ],
      [
        "åŃ",
        "¦"
      ],
      [
        "æ",
        "±"
      ],
      [
        "åĲ",
        "į"
      ],
      [
        "ç",
        "Ń"
      ],
      [
        "Ġ",
        "Ċ"
      ],
      [
        "å",
        "§"
      ],
      [
        "å",
        "¿"
      ],
      [
        "æ",
        "Ĭ"
      ],
      [
        "è¥",
        "¿"
      ],
      [
        "è",
        "ĥ"
      ],
      [
        "æ³",
        "ķ"
      ],
      [
        "æľ",
        "¬"
      ],
      [
        "Â",
        "·"
      ],
      [
        "æĶ",
        "¿"
      ],
      [
        "åŃ",
        "Ĳ"
      ],
      [
        "ç",
        "Ī"
      ],
      [
        "æ",
        "¬"
      ],
      [
        "è",
        "¢"
      ],
      [
        "åŃ",
        "¸"
      ],
      [
        "é",
        "Ĺ"
      ],
      [
        "æĸ",
        "¹"
      ],
      [
        "è",
        "ª"
      ],
      [
        "è",
        "·"
      ],
      [
        "åĪ",
        "°"
      ],
      [
        "äº",
        "İ"
      ],
      [
        "åį",
        "Ĺ"
      ],
      [
        "èĢ",
        "Į"
      ],
      [
        "è",
        "³"
      ],
      [
        "æĻ",
        "Ĥ"
      ],
      [
        "æľ",
        "ĥ"
      ],
      [
        "åı",
        "Ĭ"
      ],
      [
        "å¸",
        "Ĥ"
      ],
      [
        "è",
        "¾"
      ],
      [
        "ãĢ",
        "Į"
      ],
      [
        "ãĢ",
        "į"
      ],
      [
        "ç",
        "ľ"
      ],
      [
        "å¾",
        "Į"
      ],
      [
        "è¢",
        "«"
      ],
      [
        "ç",
        "¶"
      ],
      [
        "ç",
        "©"
      ],
      [
        "èĩ",
        "ª"
      ],
      [
        "åĲ",
        "Į"
      ],
      [
        "çĶ",
        "±"
      ],
      [
        "å",
        "£"
      ],
      [
        "æ",
        "Į"
      ],
      [
        "åĮ",
        "Ĺ"
      ],
      [
        "è",
        "ĭ"
      ],
      [
        "ä¸",
        "ĭ"
      ],
      [
        "çī",
        "¹"
      ],
      [
        "å¤",
        "ļ"
      ],
      [
        "æ",
        "¼"
      ],
      [
        "æĸ",
        "°"
      ],
      [
        "æ",
        "¨"
      ],
      [
        "20",
        "1"
      ],
      [
        "ç¾",
        "İ"
      ],
      [
        "20",
        "0"
      ],
      [
        "åı",
        "¯"
      ],
      [
        "é",
        "»"
      ],
      [
        "ä½",
        "į"
      ],
      [
        "ç",
        "½"
      ],
      [
        "å",
        "ł"
      ],
      [
        "ä¸",
        "ĸ"
      ],
      [
        "çī",
        "©"
      ],
      [
        "ä»",
        "£"
      ],
      [
        "é",
        "¡"
      ],
      [
        "é«",
        "ĺ"
      ],
      [
        "å¤",
        "ĸ"
      ],
      [
        "è",
        "ī"
      ],
      [
        "æľ",
        "Ģ"
      ],
      [
        "ä¸",
        "ī"
      ],
      [
        "é",
        "ł"
      ],
      [
        "è",
        "½"
      ],
      [
        "æµ",
        "·"
      ],
      [
        "èĪ",
        "ĩ"
      ],
      [
        "âĢ",
        "ľ"
      ],
      [
        "âĢ",
        "Ŀ"
      ],
      [
        "åī",
        "į"
      ],
      [
        "é",
        "Ł"
      ],
      [
        "ç«",
        "ĭ"
      ],
      [
        "å°",
        "ı"
      ],
      [
        "çŃ",
        "ī"
      ],
      [
        "æī",
        "Ģ"
      ],
      [
        "éģ",
        "ĵ"
      ],
      [
        "ç",
        "¥"
      ],
      [
        "ç",
        "¤"
      ],
      [
        "åĬ",
        "ł"
      ],
      [
        "åħ",
        "ĭ"
      ],
      [
        "å¾",
        "·"
      ],
      [
        "çĲ",
        "Ĩ"
      ],
      [
        "ä»",
        "»"
      ],
      [
        "è",
        "©"
      ],
      [
        "äº",
        "ĭ"
      ],
      [
        "è",
        "´"
      ],
      [
        "å»",
        "º"
      ],
      [
        "æķ",
        "Ļ"
      ],
      [
        "ä¹",
        "Ł"
      ],
      [
        "åĲ",
        "İ"
      ],
      [
        "ä¼",
        "ļ"
      ],
      [
        "æ",
        "Ħ"
      ],
      [
        "é",
        "Ĥ"
      ],
      [
        "å±",
        "±"
      ],
      [
        "e",
        "r"
      ],
      [
        "è¦",
        "ģ"
      ],
      [
        "ç",
        "·"
      ],
      [
        "ç",
        "Ł"
      ],
      [
        "åĪ",
        "©"
      ],
      [
        "ç",
        "ģ"
      ],
      [
        "å",
        "¦"
      ],
      [
        "åĽ",
        "ł"
      ],
      [
        "è",
        "Ń"
      ],
      [
        "æ",
        "ı"
      ],
      [
        "äº",
        "Į"
      ],
      [
        "ä¸",
        "ª"
      ],
      [
        "å",
        "Ŀ"
      ],
      [
        "è·",
        "¯"
      ],
      [
        "åĮ",
        "ĸ"
      ],
      [
        "æŃ",
        "¤"
      ],
      [
        "åı",
        "°"
      ],
      [
        "å¾",
        "Ĺ"
      ],
      [
        "å¤",
        "©"
      ],
      [
        "ç",
        "Ħ"
      ],
      [
        "ç",
        "ı"
      ],
      [
        "è",
        "£"
      ],
      [
        "è¡",
        "¨"
      ],
      [
        "é",
        "¢"
      ],
      [
        "ç",
        "±"
      ],
      [
        "æĹ",
        "¶"
      ],
      [
        "å·",
        "¥"
      ],
      [
        "å¹",
        "³"
      ],
      [
        "a",
        "n"
      ],
      [
        "èĥ",
        "½"
      ],
      [
        "æ",
        "ĵ"
      ],
      [
        "æľ",
        "Ł"
      ],
      [
        "èĩ",
        "³"
      ],
      [
        "éĩ",
        "Į"
      ],
      [
        "åĲ",
        "Ī"
      ],
      [
        "å®",
        "ļ"
      ],
      [
        "åħ",
        "¨"
      ],
      [
        "è",
        "¶"
      ],
      [
        "ç«",
        "Ļ"
      ],
      [
        "èĢ",
        "ħ"
      ],
      [
        "è",
        "Ĳ"
      ],
      [
        "éĢ",
        "ļ"
      ],
      [
        "è",
        "Ļ"
      ],
      [
        "åį",
        "ģ"
      ],
      [
        ")",
        ","
      ],
      [
        "ä½",
        "¿"
      ],
      [
        "åº",
        "¦"
      ],
      [
        "è",
        "²"
      ],
      [
        "çĻ",
        "¼"
      ],
      [
        "åĮ",
        "º"
      ],
      [
        "çİ",
        "ĭ"
      ],
      [
        "æ",
        "ĥ"
      ],
      [
        "åħ",
        "±"
      ],
      [
        "é",
        "£"
      ],
      [
        "åħ",
        "¥"
      ],
      [
        "ç§",
        "ĳ"
      ],
      [
        "åĢ",
        "ĭ"
      ],
      [
        "éĽ",
        "»"
      ],
      [
        "éĿ",
        "¢"
      ],
      [
        "æĭ",
        "ī"
      ],
      [
        "è",
        "Ĥ"
      ],
      [
        "éĻ",
        "¢"
      ],
      [
        "ç",
        "į"
      ],
      [
        "æĢ",
        "§"
      ],
      [
        "1",
        "0"
      ],
      [
        "å·",
        "ŀ"
      ],
      [
        "æ",
        "¥"
      ],
      [
        "æ¬",
        "¡"
      ],
      [
        "i",
        "n"
      ],
      [
        "ç",
        "®"
      ],
      [
        "åį",
        "Ģ"
      ],
      [
        "å",
        "ģ"
      ],
      [
        "ç",
        "³"
      ],
      [
        "åĭ",
        "ķ"
      ],
      [
        "ä½",
        "Ĩ"
      ],
      [
        "å°",
        "Ķ"
      ],
      [
        "ç",
        "¸"
      ],
      [
        "æĺ",
        "İ"
      ],
      [
        "çĽ",
        "¸"
      ],
      [
        "éĩ",
        "į"
      ],
      [
        "åİ",
        "Ł"
      ],
      [
        "åĵ",
        "¡"
      ],
      [
        "å¼",
        "ı"
      ],
      [
        "åĨ",
        "Ľ"
      ],
      [
        "o",
        "n"
      ],
      [
        "ç",
        "¦"
      ],
      [
        "å®",
        "ī"
      ],
      [
        "åĬ",
        "Ľ"
      ],
      [
        "å£",
        "«"
      ],
      [
        "åı",
        "ĳ"
      ],
      [
        "çĲ",
        "ĥ"
      ],
      [
        "æ¼",
        "Ķ"
      ],
      [
        "éĥ",
        "½"
      ],
      [
        "èĢ",
        "ĥ"
      ],
      [
        "è",
        "¼"
      ],
      [
        "æ²",
        "»"
      ],
      [
        "æ",
        "º"
      ],
      [
        "è",
        "ĳ"
      ],
      [
        "å½",
        "±"
      ],
      [
        "ç",
        "ł"
      ],
      [
        "éĩ",
        "ĳ"
      ],
      [
        "æ",
        "Ł"
      ],
      [
        "æ",
        "©"
      ],
      [
        "æ",
        "®"
      ],
      [
        "åŁ",
        "º"
      ],
      [
        "å",
        "Ĥ"
      ],
      [
        "æĺ",
        "Ł"
      ],
      [
        "è",
        "ı"
      ],
      [
        "é",
        "©"
      ],
      [
        "ä¾",
        "Ĩ"
      ],
      [
        "è»",
        "į"
      ],
      [
        "å",
        "¢"
      ],
      [
        "ç³",
        "»"
      ],
      [
        "ä¸",
        "İ"
      ],
      [
        "åŁ",
        "İ"
      ],
      [
        "åĪ",
        "¶"
      ],
      [
        "å¥",
        "³"
      ],
      [
        "æ¸",
        "¯"
      ],
      [
        "èĭ",
        "±"
      ],
      [
        "è",
        "Ĭ"
      ],
      [
        "éķ",
        "·"
      ],
      [
        "è»",
        "Ĭ"
      ],
      [
        "æ",
        "ģ"
      ],
      [
        "ä¸",
        "¦"
      ],
      [
        "å",
        "ĸ"
      ],
      [
        "è",
        "İ"
      ],
      [
        "æ°",
        "´"
      ],
      [
        "å°",
        "į"
      ],
      [
        "æŃ",
        "£"
      ],
      [
        "å¸",
        "ĥ"
      ],
      [
        "çĽ",
        "®"
      ],
      [
        "åħ",
        "ĥ"
      ],
      [
        "ã",
        "ĥ"
      ],
      [
        "å",
        "ķ"
      ],
      [
        "åı",
        "¸"
      ],
      [
        "åĪ",
        "Ĺ"
      ],
      [
        "åº",
        "ľ"
      ],
      [
        "1",
        "8"
      ],
      [
        "æ¯",
        "Ķ"
      ],
      [
        "åı",
        "²"
      ],
      [
        "åı",
        "£"
      ],
      [
        "éķ",
        "¿"
      ],
      [
        "|",
        "|"
      ],
      [
        "åĽ",
        "Ľ"
      ],
      [
        "å",
        "¡"
      ],
      [
        "æŀ",
        "Ĺ"
      ],
      [
        "Ġ",
        "("
      ],
      [
        "0",
        "0"
      ],
      [
        "å",
        "²"
      ],
      [
        "æİ",
        "¥"
      ],
      [
        "éŁ",
        "³"
      ],
      [
        "è",
        "Ĺ"
      ],
      [
        "æĿ",
        "±"
      ],
      [
        "ç¶",
        "ĵ"
      ],
      [
        "éĸ",
        "ĭ"
      ],
      [
        "19",
        "9"
      ],
      [
        "æĪ",
        "ĸ"
      ],
      [
        "å¦",
        "Ĥ"
      ],
      [
        "çľ",
        "ģ"
      ],
      [
        "ä¸Ń",
        "åĽ½"
      ],
      [
        "e",
        "n"
      ],
      [
        "æł",
        "¼"
      ],
      [
        "æ",
        "¢"
      ],
      [
        "åı",
        "Ĥ"
      ],
      [
        "çĪ",
        "¾"
      ],
      [
        "èµ",
        "·"
      ],
      [
        "å",
        "Ķ"
      ],
      [
        "æ",
        "¡"
      ],
      [
        "å¯",
        "¹"
      ],
      [
        "1",
        "2"
      ],
      [
        "æĿ",
        "¥"
      ],
      [
        "è¿",
        "Ļ"
      ],
      [
        "æľ",
        "Ŀ"
      ],
      [
        "å¸",
        "¸"
      ],
      [
        "æł",
        "¡"
      ],
      [
        "éĩ",
        "ı"
      ],
      [
        "Ġ",
        "Ġ"
      ],
      [
        "åĳ",
        "ĺ"
      ],
      [
        "a",
        "r"
      ],
      [
        "è",
        "«"
      ],
      [
        "o",
        "r"
      ],
      [
        "å¿",
        "ĥ"
      ],
      [
        "æ",
        "Ĵ"
      ],
      [
        "å°",
        "¼"
      ],
      [
        "ä¸",
        "ľ"
      ],
      [
        "é",
        "ħ"
      ],
      [
        "æĪ",
        "°"
      ],
      [
        "æĶ",
        "¹"
      ],
      [
        "åĬ",
        "¨"
      ],
      [
        "a",
        "l"
      ],
      [
        "å·",
        "´"
      ],
      [
        "æı",
        "Ĳ"
      ],
      [
        "çķ",
        "Į"
      ],
      [
        "âĢ",
        "Ķ"
      ],
      [
        "äº",
        "¤"
      ],
      [
        "éĺ",
        "¿"
      ],
      [
        "æ",
        "·"
      ],
      [
        "é¦",
        "Ļ"
      ],
      [
        "é¦",
        "ĸ"
      ],
      [
        "ç¨",
        "ĭ"
      ],
      [
        "è",
        "ĺ"
      ],
      [
        "éĢ",
        "Ļ"
      ],
      [
        "äº",
        "ŀ"
      ],
      [
        "å¼",
        "Ģ"
      ],
      [
        "ç¤",
        "¾"
      ],
      [
        "æ©",
        "Ł"
      ],
      [
        "æī",
        "ĭ"
      ],
      [
        "ç",
        "¯"
      ],
      [
        "çı",
        "¾"
      ],
      [
        "æĹ¥",
        "æľ¬"
      ],
      [
        "é",
        "ľ"
      ],
      [
        "æ",
        "£"
      ],
      [
        "éĸ",
        "ĵ"
      ],
      [
        "é«",
        "Ķ"
      ],
      [
        "é",
        "ĵ"
      ],
      [
        "å¹",
        "¶"
      ],
      [
        "å¤",
        "ª"
      ],
      [
        "åĲ",
        "ĳ"
      ],
      [
        "çĦ",
        "¶"
      ],
      [
        "èī",
        "²"
      ],
      [
        "å",
        "ŀ"
      ],
      [
        "å",
        "¨"
      ],
      [
        "è",
        "°"
      ],
      [
        "éģ",
        "İ"
      ],
      [
        "åĵ",
        "ģ"
      ],
      [
        "éĽ",
        "Ĩ"
      ],
      [
        "æµ",
        "ģ"
      ],
      [
        "æĦ",
        "ı"
      ],
      [
        "1",
        "1"
      ],
      [
        "å°",
        "±"
      ],
      [
        "å§",
        "Ķ"
      ],
      [
        "æ",
        "į"
      ],
      [
        "çķ",
        "¶"
      ],
      [
        "a",
        "t"
      ],
      [
        "å",
        "³"
      ],
      [
        "ä¿",
        "Ŀ"
      ],
      [
        "ç©",
        "º"
      ],
      [
        "åı",
        "ĥ"
      ],
      [
        "é",
        "Ń"
      ],
      [
        "Ġ",
        "||"
      ],
      [
        "å½",
        "¢"
      ],
      [
        "å§",
        "ĭ"
      ],
      [
        "åĨ",
        "ħ"
      ],
      [
        "æĽ",
        "²"
      ],
      [
        "åħ",
        "§"
      ],
      [
        "å",
        "ĥ"
      ],
      [
        "çĶ",
        "µ"
      ],
      [
        "å°",
        "ĩ"
      ],
      [
        "æ²",
        "³"
      ],
      [
        "çģ",
        "£"
      ],
      [
        "åı",
        "Ĺ"
      ],
      [
        "ç·",
        "ļ"
      ],
      [
        "Ġ",
        "-"
      ],
      [
        "ç±",
        "³"
      ],
      [
        "æ",
        "¶"
      ],
      [
        "æĹ",
        "ı"
      ],
      [
        "äº",
        "ļ"
      ],
      [
        "éĢ",
        "²"
      ],
      [
        "è",
        "º"
      ],
      [
        "Ġ",
        "S"
      ],
      [
        "æľ",
        "º"
      ],
      [
        "e",
        "s"
      ],
      [
        "åı",
        "¤"
      ],
      [
        "åł",
        "´"
      ],
      [
        "ç»",
        "ı"
      ],
      [
        "åŃ",
        "Ĺ"
      ],
      [
        "å®",
        "ĺ"
      ],
      [
        "äº",
        "Ķ"
      ],
      [
        "åĮ",
        "ħ"
      ],
      [
        "ç®",
        "¡"
      ],
      [
        "äº",
        "¬"
      ],
      [
        "æĮ",
        "ĩ"
      ],
      [
        "ç",
        "¿"
      ],
      [
        "æ±",
        "Ł"
      ],
      [
        "é¦Ļ",
        "æ¸¯"
      ],
      [
        "çī",
        "Ī"
      ],
      [
        "çĽ",
        "´"
      ],
      [
        "ä½",
        "ĵ"
      ],
      [
        "å·",
        "²"
      ],
      [
        "åŀ",
        "ĭ"
      ],
      [
        "è",
        "±"
      ],
      [
        "æ¥",
        "Ń"
      ],
      [
        "å±",
        "ķ"
      ],
      [
        "æĽ",
        "¾"
      ],
      [
        "é¦",
        "¬"
      ],
      [
        "19",
        "8"
      ],
      [
        "æĪ",
        "ĺ"
      ],
      [
        "äº",
        "Ľ"
      ],
      [
        "æķ",
        "°"
      ],
      [
        "è¦",
        "ĸ"
      ],
      [
        "èº",
        "«"
      ],
      [
        "è¿",
        "Ľ"
      ],
      [
        "ç¥",
        "ŀ"
      ],
      [
        "æ",
        "ħ"
      ],
      [
        "éģ",
        "ĭ"
      ],
      [
        "è",
        "į"
      ],
      [
        "è¨",
        "Ń"
      ],
      [
        "åĲ",
        "Ħ"
      ],
      [
        "ç¨",
        "±"
      ],
      [
        "è¿",
        "ĩ"
      ],
      [
        "æĸ",
        "Ļ"
      ],
      [
        "æĶ¿",
        "åºľ"
      ],
      [
        "æĮ",
        "ģ"
      ],
      [
        "çµ",
        "Ĳ"
      ],
      [
        "ä¸",
        "ļ"
      ],
      [
        "çİ",
        "°"
      ],
      [
        "å°",
        "ĳ"
      ],
      [
        "åı",
        "į"
      ],
      [
        "çł",
        "Ķ"
      ],
      [
        "æķ",
        "¸"
      ],
      [
        "i",
        "c"
      ],
      [
        "èĳ",
        "Ĺ"
      ],
      [
        "å",
        "Ļ"
      ],
      [
        "åį",
        "¡"
      ],
      [
        "å",
        "Ħ"
      ],
      [
        "æ",
        "»"
      ],
      [
        "å°",
        "Ĩ"
      ],
      [
        "ä½¿",
        "çĶ¨"
      ],
      [
        "æ",
        "¹"
      ],
      [
        "æ¸",
        "ħ"
      ],
      [
        "é©",
        "¬"
      ],
      [
        "ç¬¬",
        "ä¸Ģ"
      ],
      [
        ")",
        "ãĢĤ"
      ],
      [
        "ç",
        "ĭ"
      ],
      [
        "åħ",
        "ī"
      ],
      [
        "æĥ",
        "ħ"
      ],
      [
        "è³",
        "½"
      ],
      [
        "éĹ",
        "ľ"
      ],
      [
        "éĹ",
        "´"
      ],
      [
        "ã",
        "Ĥ"
      ],
      [
        "Ġ",
        "C"
      ],
      [
        "å¤",
        "«"
      ],
      [
        "ç",
        "Ŀ"
      ],
      [
        "åĳ",
        "½"
      ],
      [
        "æ´",
        "²"
      ],
      [
        "è§",
        "£"
      ],
      [
        "ã",
        "ģ"
      ],
      [
        "æĽ",
        "´"
      ],
      [
        "éĢ",
        "ł"
      ],
      [
        "é",
        "¾"
      ],
      [
        "ä¿",
        "¡"
      ],
      [
        "ç",
        "²"
      ],
      [
        "éļ",
        "Ĭ"
      ],
      [
        "å¸",
        "Ŀ"
      ],
      [
        "çļĦ",
        "ä¸Ģ"
      ],
      [
        "èı",
        "¯"
      ],
      [
        "ä»",
        "¶"
      ],
      [
        "åĽ",
        "ŀ"
      ],
      [
        "æŃ",
        "Į"
      ],
      [
        "é",
        "º"
      ],
      [
        "è¿",
        "ĳ"
      ],
      [
        "åİ",
        "¿"
      ],
      [
        "è",
        "Ĵ"
      ],
      [
        "i",
        "s"
      ],
      [
        "ç",
        "¹"
      ],
      [
        "1",
        "5"
      ],
      [
        "ç",
        "ĥ"
      ],
      [
        "çŁ",
        "³"
      ],
      [
        "h",
        "e"
      ],
      [
        "å±",
        "Ģ"
      ],
      [
        "ç",
        "¼"
      ],
      [
        "èĻ",
        "Ł"
      ],
      [
        "åħ¬",
        "åı¸"
      ],
      [
        "ç§",
        "°"
      ],
      [
        "æŃ",
        "¦"
      ],
      [
        "ç½",
        "Ĺ"
      ],
      [
        "çµ",
        "±"
      ],
      [
        "è",
        "Į"
      ],
      [
        "ç¾",
        "ħ"
      ],
      [
        "æ´",
        "»"
      ],
      [
        "ç",
        "Į"
      ],
      [
        "æ¨",
        "Ĥ"
      ],
      [
        "äºº",
        "æ°ĳ"
      ],
      [
        "i",
        "t"
      ],
      [
        "ç©",
        "¶"
      ],
      [
        "æĶ",
        "¯"
      ],
      [
        "åı¯",
        "ä»¥"
      ],
      [
        "ç¨",
        "®"
      ],
      [
        "æĶ",
        "¾"
      ],
      [
        "ç",
        "¢"
      ],
      [
        "æĿ",
        "İ"
      ],
      [
        "ç§",
        "į"
      ],
      [
        "åı",
        "ĸ"
      ],
      [
        "ç",
        "ĳ"
      ],
      [
        "åħ",
        "©"
      ],
      [
        "è³",
        "ĩ"
      ],
      [
        "åį",
        "İ"
      ],
      [
        "éĿ",
        "ŀ"
      ],
      [
        "èª",
        "ŀ"
      ],
      [
        "çłĶ",
        "ç©¶"
      ],
      [
        "è¿",
        "Ĳ"
      ],
      [
        "è½",
        "¦"
      ],
      [
        "ç¤",
        "º"
      ],
      [
        "ç",
        "Ĺ"
      ],
      [
        "1",
        "6"
      ],
      [
        "äº",
        "§"
      ],
      [
        "éģ",
        "¸"
      ],
      [
        "çī",
        "ĩ"
      ],
      [
        "è®",
        "¾"
      ],
      [
        "èģ",
        "¯"
      ],
      [
        "åĻ",
        "¨"
      ],
      [
        "Ġ",
        "A"
      ],
      [
        "æĢ",
        "»"
      ],
      [
        "é",
        "Ĳ"
      ],
      [
        "åķ",
        "Ĩ"
      ],
      [
        "èģ",
        "Ķ"
      ],
      [
        "ç¸",
        "½"
      ],
      [
        "çĻ",
        "½"
      ],
      [
        "ç¾İ",
        "åľĭ"
      ],
      [
        "ç»",
        "Ł"
      ],
      [
        "Ġ",
        "M"
      ],
      [
        "çĦ",
        "¡"
      ],
      [
        "éĢ",
        "£"
      ],
      [
        "1",
        "7"
      ],
      [
        "ä¸ĸ",
        "çķĮ"
      ],
      [
        "é",
        "¤"
      ],
      [
        "ç»",
        "Ħ"
      ],
      [
        "èĺ",
        "Ń"
      ],
      [
        "æĻ",
        "®"
      ],
      [
        "è§",
        "Ĵ"
      ],
      [
        "åı",
        "Ī"
      ],
      [
        "l",
        "e"
      ],
      [
        "Ġ",
        "P"
      ],
      [
        "çŁ",
        "¥"
      ],
      [
        "èĤ",
        "²"
      ],
      [
        "æ",
        "ĩ"
      ],
      [
        "æ³",
        "¢"
      ],
      [
        "åı",
        "ª"
      ],
      [
        "æĶ",
        "¶"
      ],
      [
        "ç",
        "ĸ"
      ],
      [
        "è¯",
        "Ń"
      ],
      [
        "å½",
        "ĵ"
      ],
      [
        "åıĤ",
        "èĢĥ"
      ],
      [
        "éģ",
        "Ķ"
      ],
      [
        "ç´",
        "Ħ"
      ],
      [
        "è¨",
        "Ģ"
      ],
      [
        "åħ",
        "³"
      ],
      [
        "é",
        "Į"
      ],
      [
        "å®",
        "ĥ"
      ],
      [
        "ç",
        "ĩ"
      ],
      [
        "åħ",
        "Ń"
      ],
      [
        "å®",
        "Ĺ"
      ],
      [
        "ä¼",
        "Ĭ"
      ],
      [
        "èŃ",
        "°"
      ],
      [
        "åħ",
        "Ī"
      ],
      [
        "çĶ",
        "°"
      ],
      [
        "åį",
        "³"
      ],
      [
        "ç¸",
        "£"
      ],
      [
        "ç¾",
        "©"
      ],
      [
        "ç¦",
        "ı"
      ],
      [
        "éĺ",
        "Ł"
      ],
      [
        "æº",
        "Ĳ"
      ],
      [
        "æ",
        "¿"
      ],
      [
        "ä¸Ń",
        "åľĭ"
      ],
      [
        "è",
        "ħ"
      ],
      [
        "æĭ",
        "¬"
      ],
      [
        "æ´",
        "¾"
      ],
      [
        "çµ",
        "Ħ"
      ],
      [
        "ä¸",
        "¤"
      ],
      [
        "è¨",
        "Ī"
      ],
      [
        "åı",
        "·"
      ],
      [
[...]
